<cls>
<pad>
<sep>
<unk>
<mask>
<name>
<providernumber>
<attendinginfo>
<hospital>
<dictatorinfo>
<jobnumber>
<clipnumber>
<contactinfo>
<address>
<url>
<university>
<company>
<numericalidentifier>
<age>
<date>


!
"
#
$
%
&
'
(
)
*
+
.
/
0
1
2
3
4
5
6
7
8
9
<
=
>
?
@
[
\
]
^
`
a
b
c
d
e
f
g
h
i
j
k
l
m
n
o
p
q
r
s
t
u
v
w
x
y
z
{
|
}
~

##e
##d
##i
##s
##n
##o
##p
##a
##h
##l
##r
##x
##m
##t
##v
##u
##b
##k
##c
##g
##7
##2
##0
##6
##f
##y
##9
##1
##5
##j
##3
##4
##$
##@
##q
##w
##8
##z
##!
##"
##.
##*
##)
##?
##<
##&
##(
##+
##%
##'
##|
##/
###
##=
##>
##[
##{
##]
##~
##`
##}
##^
##
##\
##
##on
##in
##er
##at
##al
##en
##ed
##es
##or
##it
th
##ar
##ion
##ic
##as
##nd
##is
##ent
in
##an
##ing
to
##le
##re
and
##ro
the
re
no
of
##ith
##il
with
un
##ac
##ou
##os
##om
##ol
con
##ul
unk
##am
##id
st
##ation
##el
##ct
##em
##us
##ig
##ur
for
on
##ess
##iv
is
as
##ow
##ter
##ain
##tr
##ab
ch
##um
##ly
##th
##od
##ad
##ut
le
at
##igh
##ft
ne
##ort
res
##ir
##ight
am
##ce
##ch
pt
##ate
se
ex
cont
##ag
ab
##op
he
##im
not
##ine
was
pl
##ip
##ay
com
##ated
##able
##**
pr
##ere
10
pro
al
##pp
##ial
or
##ub
an
tr
ad
dis
##est
##ame
##ast
sh
##et
##ive
##mal
##ot
##ical
##ia
##ction
##ver
##ve
resp
left
##se
per
##if
pat
##ient
car
##ure
name
##oc
sp
be
##un
##ment
##ap
##hy
this
cl
right
##ue
mg
##low
##ang
med
im
##ory
de
##ist
ml
##ib
ass
##lo
inf
are
su
##ous
##yp
##lu
wh
##ition
dr
##cre
##act
ev
##rom
##ill
##our
patient
##end
rep
pm
##ital
pos
assess
there
comp
contin
##st
##ormal
##ult
##ress
##ase
##ant
##ear
##ther
##inal
po
##art
##00
##ication
##ary
ar
##cc
hyp
##ell
##ail
##og
12
di
##ular
##ies
##osp
app
##ld
adm
##one
vent
plan
abd
pul
##****
##ff
from
##ions
hosp
normal
fe
hospital
we
##ity
##ath
chest
mon
ct
##ler
int
reas
##eral
rem
##sion
exam
##ound
##ior
reason
chang
##ne
##iz
##qu
hr
iv
hem
##ely
me
##ement
##osis
pain
11
ac
imp
##ak
##ph
day
##ard
clip
plac
##gh
##pt
##age
sig
af
##ge
dl
stat
##itor
ext
blo
blood
##esent
fol
contr
has
sy
##all
she
##ie
ple
monitor
15
continue
sin
##ep
##ans
follow
so
bil
up
pre
assessment
tub
##ium
##ax
##tt
rec
status
##ose
over
##ung
>.
but
##o2
trans
##creas
stable
cons
eff
by
flu
##tal
min
inter
mil
##out
hist
remain
history
##ach
bp
##atory
13
##ert
lung
20
##ect
noted
##ance
low
14
24
##lear
well
tube
##iven
##ination
contrast
present
mild
##day
other
report
30
tim
##itt
##av
given
br
##ov
abdom
##let
##and
old
100
care
##ding
##ric
will
year
hour
##ob
##uro
respon
ed
##ateral
##urr
fluid
examination
##di
##dition
##usion
medical
##fer
reg
##iratory
##ral
eval
##ave
clear
##ious
##ures
##ications
##ome
val
##mon
##ute
##olog
respiratory
neuro
##urrent
##ber
her
supp
en
##ide
##der
out
##anc
aort
ob
op
cardi
##creased
need
sc
##ole
ag
ins
##rem
li
##omy
cm
acute
##agn
go
##own
sign
te
##rop
col
25
##arge
40
cou
compar
cr
##ys
##ression
50
arter
##ery
##ounds
##ural
lab
ventric
##ud
rr
ic
seen
final
feed
##ick
non
were
##rine
##ool
smal
).
table
after
##rou
bre
pulmon
##ass
mod
soft
##enal
##urg
##neum
tablet
his
##ence
small
ul
rad
line
valve
##ative
##ron
had
pneum
now
drain
##ens
##ri
post
port
appear
diagn
##ema
man
date
##********
##ending
dif
condition
##bc
syst
response
lev
sub
admitt
meq
##ily
support
remains
##ck
hep
kg
hct
##umber
start
stool
ap
##orm
##aily
16
mm
##rol
sat
ind
##thm
cv
daily
today
fail
current
prior
##ology
##tain
fam
continu
##iew
pulmonary
pe
sounds
##number
mor
##so
toler
##ice
##kin
have
##ack
time
##ities
##oth
admis
lik
bas
##mg
##ved
cath
##ite
that
co
icu
##ix
failure
admission
##ich
urine
##yl
clipnumber
fin
bilateral
18
renal
##hythm
##uct
family
which
o2
edema
thick
60
diagnosis
##oid
neg
ant
air
medications
note
##ual
changes
##ost
##itis
##emp
finding
total
rhythm
action
inc
one
breath
comm
sinus
temp
##ments
aortic
head
proc
infant
atr
##hys
##ness
effusion
##cer
##reat
evalu
heart
##its
bs
mult
also
since
intub
evid
increased
##olic
hours
likely
ly
##ension
findings
impression
##ode
##yn
please
##ize
##ree
labs
change
impro
prev
##chang
disch
##ale
dil
gr
00
##asc
att
dev
act
##az
ser
without
##emia
abdomen
cor
sl
##ift
##use
evidence
##changed
end
par
ventricular
##ics
prop
pleural
been
cal
skin
##ifi
fr
diff
radi
##rough
ph
lower
04
unchanged
##ating
extrem
##rh
wean
id
off
previous
mid
wor
ele
17
np
transfer
if
##ening
compl
stud
phys
gu
press
placement
ca
fl
bow
rece
##eter
bowel
fi
asp
flow
80
19
artery
##ific
moder
size
intr
22
new
##ull
shift
##sh
02
cx
03
##con
##ection
dose
discharge
##ons
last
gtt
comments
perf
##ts
ble
sw
##usions
control
gi
met
ng
do
requ
due
imag
##imal
surg
receiv
tf
##unction
##ove
##ogr
##ds
##atic
##terior
21
all
abg
dise
admitting
ve
started
when
bleed
##air
order
aw
code
disease
through
disp
##af
##arin
##ake
##ile
trac
26
qu
bl
##ascular
28
bal
del
05
show
wbc
placed
em
comparis
35
90
study
glu
interv
##icu
within
cc
vis
full
23
catheter
70
abdominal
cult
rev
##istent
sed
##ended
sb
##tained
##utr
liv
32
##arg
ventil
##ible
07
##card
##eck
##row
proced
##cl
##nown
assessed
bed
upp
fever
can
level
upper
##au
comparison
##itation
##ning
lob
prn
##itral
heparin
27
moderate
des
trach
poss
##ox
home
nutr
ep
mitral
##hed
08
good
vanc
##cg
cardiac
##ade
aspir
fract
wall
portable
##lerg
allerg
##iot
ps
##gest
##uring
##oma
36
##int
##cret
cp
vol
##of
pulse
##ek
feeds
hypert
##ock
gluc
tac
##ands
ref
above
review
hemod
las
systolic
occ
indication
##opp
hyper
antib
gen
45
balance
lasix
06
rest
##ark
mov
fib
nutrition
##cy
98
rate
150
negative
##ynam
elev
mass
chron
check
back
##ong
tachy
##inis
29
week
und
sats
main
received
signific
##pm
##ents
fio2
##ane
tw
allergies
secret
chronic
##ould
intubated
##nt
##ief
##up
##sed
prog
spo2
fem
01
multip
##red
exp
##aph
37
str
add
significant
calc
##lect
sett
pneumon
##fort
%.
hemat
glucose
pac
##uction
disc
see
##ided
##asis
secretions
55
compared
##ically
under
some
down
##ional
##mm
interval
fur
ns
cough
liver
inv
further
##ulin
mr
hemodynam
dist
dem
inr
place
antibiot
clin
more
recent
system
##orrh
times
pneumonia
##ug
##tric
insulin
##hyl
##ates
##orax
##ont
lym
31
hypot
procedure
##ified
may
##axis
active
atrial
tracing
lungs
init
##onch
lim
##ately
av
lymph
##lets
##aneous
signs
call
slight
##oman
weight
##sis
sbp
position
ra
needed
evaluate
intact
hemorrh
prot
##les
##ized
goal
pic
##sing
99
leaf
woman
##cin
##ardial
extremities
sug
large
##ll
##ough
lobe
##ca
setting
feeding
##hylaxis
##osition
ret
pel
tolerated
sput
##****************
et
##oley
##led
cxr
foley
then
##su
sup
multiple
suction
abn
continues
##vis
sputum
prophylaxis
97
physical
alert
amou
##co
##eb
antibiotics
lo
##ormed
##2o
abnormal
mildly
33
acc
extub
##vt
##ocal
dim
pressure
any
na
free
serv
##ata
hy
following
obtained
##othorax
##min
spe
opac
09
cour
dys
##crease
tip
##ened
volum
ivf
##hr
high
##ace
data
##ok
##esis
function
possible
##log
picc
>)
##ograph
es
##li
##cardia
##h2o
complain
##ially
pa
##ellow
dopp
remov
##ilar
34
##are
cmh2o
##enous
##eal
most
oral
it
rel
bili
requir
##ian
during
days
vein
##onstr
monitoring
ate
team
you
course
peric
improved
leaflets
hemorrhage
result
currently
doppler
pneumothorax
##aw
ver
contact
tech
##ensive
dep
ma
##ni
transferred
##usp
soc
##emic
plt
ck
##ines
decreased
atelect
##erative
prod
very
den
dvt
distr
##gen
comfort
lact
##ental
ke
##uc
appears
upd
bet
inclu
##hg
##ire
sim
nur
creat
def
##ider
secon
general
consistent
war
fent
ulcer
##ign
none
ey
bm
##ses
hyd
view
ptt
les
sev
systems
consult
infection
minimal
sent
fracture
##tes
38
elevated
surgery
peep
##odium
ox
##other
75
admitted
outp
cpap
##oph
##na
again
social
500
##eet
atelectasis
pan
sodium
cares
second
##aking
commands
complet
ris
neurolog
images
##tered
tc
sle
##sheet
vs
##used
flowsheet
##ations
breathing
##nal
vital
via
alb
resol
##que
pers
concer
ce
anterior
ax
ech
repe
overn
suggest
##opy
lines
progress
commun
showed
how
mur
hol
##athy
abs
obs
murm
done
known
able
throughout
distress
hypotension
performed
spont
ster
120
##ms
95
aorta
product
coron
yellow
cap
48
##oot
bel
severe
your
##iting
endo
image
two
##ility
past
96
mmhg
##lyc
prob
murmur
mot
##ature
than
arr
conf
continued
ear
##ender
vascular
amt
##truction
##way
diffic
void
pending
##erior
bol
tm
nod
improv
red
made
##iast
sep
acid
regurg
pelvis
who
atrium
demonstr
##ident
nas
lateral
approp
##??
ang
ordered
##ester
##cept
hypertension
ben
disposition
##ever
##quent
##ater
##nea
npo
bpm
mental
cann
##orac
##eld
fentan
##ops
however
##omm
test
##ink
fentanyl
regurgitation
##te
discus
140
++
clinical
cav
dilated
65
warm
effect
volume
##ysis
##pi
slightly
devel
##ors
did
drains
changed
recomm
tolerating
repeat
drainage
events
ventilation
consider
##round
sepsis
##rox
work
##itive
##vc
difficult
ident
results
spontaneous
fibr
complaint
regular
appropri
##opr
##ise
bolus
##ese
develop
does
sleep
##oral
adv
infar
##rile
pulses
diminis
##empt
##urn
sten
into
bleeding
##ady
overnight
effusions
appearance
npn
quest
attempt
asc
diminished
bilaterally
prov
orient
tmax
130
culture
##ills
chief
airway
wave
##bi
##iph
distended
site
flo
##opathy
cy
denies
jp
color
chf
cent
inj
amount
both
##eline
attending
wors
insp
##osc
pericardial
##ization
hd
##ful
deliv
found
meas
only
sm
while
radiology
ade
##uff
baseline
stenosis
##ells
below
##arkable
##pl
stress
##ex
once
hemodynamic
voiding
my
identified
39
nursing
yester
sept
yesterday
sr
micu
..
units
##itr
radiograph
bronch
##otid
##olid
fre
typ
##very
##adder
secondary
open
spine
movement
##lex
mom
floor
tachycardia
throm
needs
##tn
##icated
##ded
increase
area
fen
##ash
##phal
manag
unrem
delivery
##azole
neck
unremarkable
service
59
lum
42
epis
vap
periph
patent
communication
nc
addition
device
visual
unable
##ifier
exc
differ
pmh
radial
##iated
sided
##ula
posterior
access
##bs
oxy
tender
night
cop
thorac
alt
##amin
sedated
dec
thromb
dp
##line
##ple
bases
adequ
aspiration
coronary
htn
maintain
sedation
products
evaluation
##iet
part
type
##omycin
mcg
sever
##side
oriented
meds
mediast
short
##opress
distal
##apy
intubation
poor
arterial
techni
ls
41
44
ett
white
whe
surgical
still
##ez
thickened
technique
##iltr
pal
clos
peripheral
treat
lv
block
diures
43
drug
positive
ventricle
##enic
motion
height
cta
struct
should
could
kid
would
imaging
focal
male
gas
weeks
infiltr
except
output
pres
pc
approx
##ers
eyes
kidne
afeb
hypo
##ody
weaned
ther
pna
##onat
adequate
cab
110
diet
activ
wt
vancomycin
er
dry
propof
##ited
different
##eg
##larg
propofol
md
cabg
gro
cultures
ter
lytes
hold
replet
58
every
isch
##usc
52
##mme
neurologic
suctioned
ill
##xt
hg
alk
sul
##ife
side
##ator
##lor
removed
##lycemic
pot
56
image00
though
##ision
leg
##cephal
47
46
##yt
afebrile
tid
53
coar
afib
seiz
rs
54
central
hypox
57
stim
cavity
##til
51
##ected
keep
tis
##ust
##dr
##ore
##iod
ro
repr
det
94
unknown
invas
osh
##inf
##illation
represent
initially
vt
echo
hematoma
assist
##ime
##lac
image002
lead
worsening
far
##erv
management
rh
infusions
process
/<
##tin
q4
mri
use
set
jpg
##ovascular
cef
##bal
x1
##ym
unit
200
##ott
##kg
concern
invasive
spec
##outh
sx
fibrillation
cir
glycemic
scale
less
sob
phos
ir
tric
49
##creasing
mouth
nause
)}
coarse
appropriate
including
transf
read
mae
aware
map
gau
cad
##ulation
##cm
##cet
101
(<
ultr
##active
##illin
cover
##ostomy
nasal
##cess
being
room
loc
##acter
body
##ran
venous
inferior
metop
until
wn
##rolol
num
enlarg
base
##med
restart
nausea
opt
address
##gt
lip
equ
weak
called
s1
##uspid
invol
symme
consolid
metoprolol
wheez
cardiovascular
##sue
##acheal
wnl
##ency
morning
drip
##ites
##tern
##dh
fall
palp
activity
##aum
##ution
##ke
femoral
##we
gauge
##hrs
##oint
##iding
tricuspid
##iac
##enol
mch
desc
draining
morph
fron
resolved
sing
##ule
##opressor
trop
requiring
benign
##atient
##reated
##30
occas
##umin
adminis
complete
##ention
##ss
bab
carotid
bec
pink
scan
gall
ast
colon
##ptom
po4
unc
gast
lopressor
##inine
##ats
stent
wound
vanco
##sues
##tracheal
ultras
ngt
age
remained
single
81
resid
coll
intrav
##wise
rsbi
mediastinal
creatinine
##adin
##pnea
albumin
anx
coum
frequent
additional
abx
neut
brain
otherwise
##lection
yo
treated
diffuse
coumadin
anemia
get
ect
hx
##info
##ereb
endotracheal
enc
contactinfo
trache
##ource
tone
##operative
##rl
held
corre
72
pancre
traum
brady
##veal
female
bott
fac
sym
##sule
##tract
related
capsule
##atitis
extubated
##lying
equal
stand
neonat
morphine
ekg
next
baby
dress
x2
76
64
pip
##ench
awake
persistent
ultrasound
collection
fil
perrl
max
fir
68
92
##ched
these
rash
symmetric
##ably
bedside
mic
spells
77
discussed
nsr
hepatic
##ification
calcium
85
ards
##ivan
##mor
cvp
##ialysis
88
numer
follows
ativan
##mcg
questions
frontal
updated
##aly
lat
reveal
##fore
##mitt
##inary
ped
##oon
extremity
##ameter
chlor
lesion
injur
heent
residual
arriv
visualized
##hab
dm
gl
rele
infarction
##onin
##urys
##aind
contraind
improvement
rehab
62
##otic
##plant
loops
elect
rv
lesions
several
refills
93
##gan
canc
replac
sur
160
about
increasing
##ices
os
detail
sliding
66
cereb
ds
psv
##tic
##utes
contraindications
0700
mark
delay
##terol
us
cannot
gram
impair
sulf
long
limited
titr
settings
67
dressing
consolidation
approxim
los
arm
transplant
thoracic
adj
copd
source
slow
troponin
zos
##ving
risk
gastro
##rit
kidney
advanc
400
alth
altered
##ush
prox
##ively
69
although
vom
##oh
retract
tissue
##odes
ectopy
##cal
fluids
versed
mal
flat
abnormalities
tcurrent
ventilator
three
cell
##res
congest
cancer
lumen
taking
##noon
78
cuff
dos
1900
minutes
pulm
zosyn
bid
##order
eos
spits
angi
oxygen
release
obstruction
##open
##ting
encour
subc
ane
tomor
afternoon
tomorrow
tol
##ween
//
areas
##acin
pass
shock
update
great
differential
internal
74
tyl
##lox
symptom
##ensity
tylenol
return
##ectomy
##assium
q6
##using
potassium
ms
##ling
neonatology
opacity
##uch
##amine
plate
##pre
##ormation
susp
ost
##abet
previously
##irth
mode
61
##aft
intrac
stom
intra
diabet
vert
m2
lactic
impaired
##ured
##arb
stomach
cerv
overall
grow
trauma
axial
aspirin
63
closely
rhonch
structures
occasional
extubation
presented
aneurys
recommended
mmol
prbc
##uration
84
simple
tak
bilat
##ogram
liqu
ur
71
qual
numerical
comfortable
##amp
crack
thus
emb
therapy
liquid
esoph
approximately
nar
##imen
##identifier
numericalidentifier
inch
cervical
%)
##oots
fevers
##allow
neo
visit
meet
quality
dia
midline
##hol
##ocyt
##roid
102
seizure
amts
##elling
intermitt
exclu
between
crit
86
ccu
etoh
##oscopy
mech
##gment
s2
##bl
##ml
mother
myoc
absent
diuresis
ure
nt
wife
82
take
chloride
hpi
)*
##und
##ined
neuts
##ebral
prim
##aving
##nts
instruction
hip
around
##da
##ci
required
79
##ask
hrs
##vef
removal
abscess
alco
injury
89
##ired
face
interpre
##essel
sens
metast
##atr
lvef
require
pup
retractions
87
acet
##iray
optiray
temper
heal
piv
91
tp
##acent
tco2
instructions
##eng
brief
heme
crackles
73
ask
rn
ii
##augh
##clav
rect
pupil
diameter
##ffe
##ism
##loxacin
region
promin
ppi
ldh
wet
vessel
bun
intermittent
extr
##unct
5mg
emp
information
breast
evening
proximal
treatment
ago
vit
83
infiltrate
gent
##elf
.)
fx
##load
opacities
tubes
responds
##ranial
graft
patch
##ctomy
ascites
##draw
symptoms
temperature
##ailable
dialysis
withdraw
mask
recommend
##bil
bladder
oob
##aughter
bacter
enter
150cc
##opl
enh
fat
##iology
trace
endoc
##utaneous
issues
assoc
##aud
swallow
possib
##ength
##atin
##endent
bi
stimul
regimen
subclav
having
mv
scre
pattern
##ted
where
myocardial
recs
intracranial
hal
##uk
initial
##omeg
tee
##ocus
illness
bone
drop
infect
antic
daughter
cyst
month
##lation
##ophed
aneurysm
##ipro
vomiting
levophed
iu
delayed
subclavian
##pped
electro
abnormality
shortness
+)
first
##cv
muc
##cp
##omegaly
carev
awa
##entric
limits
##ician
rbc
subse
they
##opt
episodes
infectious
##ocol
amounts
##nr
2l
##de
decrease
##ea
##ish
##ward
wr
##lied
development
cannula
embol
rang
##tte
##tation
available
views
advanced
##opril
before
controlled
cirrh
confir
ile
##********************************
primary
leuk
feel
using
ef
cipro
##amber
art
count
path
##ene
marked
chair
same
##ested
chamber
mechan
const
dyspnea
thickening
x3
stooling
hgb
demonstrated
associated
loss
pf
pred
better
prol
temps
along
##itone
dilaud
sicu
##estinal
extensive
##ject
enhanc
fractures
dro
few
##olette
protocol
#.
revealed
improving
chole
albu
amp
incision
svc
ischemia
rt
isolette
supple
dilaudid
uop
followup
ij
##ord
##rophy
##bladder
ton
common
intravenous
applied
repair
gallbladder
physician
albuterol
details
cirrhosis
##uation
##function
turn
##resp
##icular
##lem
episode
enlarged
##phro
arrival
##illary
tte
integ
arf
developed
##ypass
q2
rrr
stro
##jor
alcohol
major
##rib
peg
##omp
segment
micro
hypoxia
restarted
overload
ascending
intake
300
appre
bradycardia
aer
concerning
scler
##itated
meeting
receiving
pp
mono
draw
diar
unclear
##iety
##yroid
bro
125
103
oste
diabetes
diarrh
later
taken
dysfunction
diast
flag
##rome
tx
leads
light
weakness
##contin
techn
caffe
duct
var
diarrhea
##pe
caffeine
underlying
contour
bypass
etiology
105
provided
##entricular
sa
birth
refer
reviewed
anxiety
##enopathy
presents
flagyl
upon
greater
##ina
vertebral
infarct
stimuli
lactate
lad
##==
pod
hel
asa
prem
div
growth
##add
hand
early
##phr
replacement
difficulty
sv
stopp
##anch
levels
spl
##aged
veins
##ccess
groin
moderately
termin
##itus
stroke
##ressed
crib
inh
##ech
##iation
electroly
hs
imm
amb
diastolic
##emi
##ych
deep
portal
here
stools
multi
moves
perfused
superior
gross
glo
##oprazole
gastroint
elevation
gastrointestinal
104
##truct
tpn
sched
measures
%).
deg
##arding
organ
became
coc
pupils
regional
##try
amiod
trend
son
///
##nia
swadd
ci
subd
eye
magn
hemodynamically
##azol
##cyst
##20
wgt
sil
##mia
followed
synd
lis
grad
mechanical
inp
leak
##apse
##ger
##illing
swelling
replete
##ribed
him
excluded
uo
pulmonic
tracheostomy
##ones
grade
##ape
boots
##lan
reports
delir
bib
musc
##io
250
dc
kne
super
steroid
biliary
tonight
##12
##astric
discontin
reported
##osed
##elt
pol
rd
sleeping
interpretation
thro
arteries
perc
stopped
neb
orig
question
earli
cle
bund
swaddled
coag
tan
consulted
pvc
rhonchi
wire
sulfate
fs
syndrome
much
325
##tration
##ather
##azine
bibas
hydro
supine
chem
earlier
##otomy
outpatient
600
##pr
mcv
bundle
##rown
sec
##acer
branch
pao2
##itoneal
agg
##adr
checks
flush
basal
sol
##ied
bip
cord
sq
subsequent
pancreatitis
##sa
pressors
carevue
##arone
lit
vas
emer
measuring
thickness
throat
ischemic
rul
field
##endum
spent
discharg
triv
period
felt
verbal
ideal
prominent
brown
##ologist
metastatic
##umed
appoint
##ump
pfi
technical
completed
addendum
hypotensive
trivial
hypertrophy
water
hematoc
psych
desat
##ability
global
##ansion
masses
subdural
##utic
foot
##10
##ccessful
amiodarone
##ressive
ss
tib
rdw
rib
hus
cmv
q6h
recently
thin
du
agitation
coverage
##ced
##ologic
discharged
##esia
border
##ophen
##ars
pur
specific
feedings
##ycin
its
syn
bibasilar
##rd
##kinesis
complications
concl
preca
dilt
pacifier
mchc
parents
##orn
pertin
proton
pertinent
acetamin
degen
##atrial
recor
defect
four
##rect
##ifications
##co3
riss
hematocrit
cerebral
lft
##oag
acidosis
wheezes
boluses
resection
stage
resident
om
##yst
location
acetaminophen
awaiting
anticoag
expansion
shows
##utions
obese
complicated
trig
headach
##seous
ptx
reposition
agitated
##ageal
hydr
protonix
resting
doses
##astatin
moving
##agm
##isone
levof
##ued
##ipation
sheath
guid
ray
lll
medic
aga
##aund
osseous
eas
##alk
ut
underw
prom
thrombus
jaund
correlation
q4h
gav
maintained
##phrine
dop
speech
nose
##odone
underwent
##yth
pericard
run
stay
106
band
septum
hernia
gain
fing
##vh
knee
cran
lipase
precautions
similar
##ires
dnr
pant
##ymal
##aine
suck
##omfort
##ank
cool
blocker
provide
##roph
##aryn
##ostic
clot
lisin
1000
depression
##emide
mi
##esth
desp
adr
help
aut
subopt
suboptimal
biops
suctioning
hydral
ecg
pantoprazole
lisinopril
despite
conj
arch
##oke
insert
cre
agree
##ings
infusing
degenerative
self
rout
##ifact
volumes
section
states
##wh
apnea
##hou
##mb
##ind
##otherapy
ather
rll
##ins
delirium
silhou
##ually
##vic
silhouet
orth
suggested
administration
amyl
##rous
progression
norm
studies
amylase
calcifications
adrenal
form
chol
junction
rap
pg
##ns
hco3
transition
probably
spinal
lov
108
nicu
tob
170
dob
round
encourage
inpatient
hum
lymphad
##bar
d5
pressures
medication
duod
cholecyst
##go
defin
##idine
event
##enchymal
ckmb
##less
107
diagnostic
##ugular
7a
eryth
##ici
integr
lymphadenopathy
##ulated
simv
arrest
pcp
##vent
180
subcutaneous
nit
mat
anesth
gre
strength
divert
qd
quadr
##phragm
encephal
septal
##amm
##uros
##medi
carina
gag
contours
advance
mb
nl
nebs
spi
bipap
sex
furos
admit
dic
leth
dsg
furosemide
prolong
##remia
twice
film
rapid
repleted
silhouette
##ulitis
jugular
years
##eric
added
##arent
adjacent
tap
fluor
letharg
malign
levo
descending
consent
cs
clean
beg
cells
est
sut
inhal
##ra
##lip
##off
rule
avr
probable
##stit
ogt
##pec
mer
##ocytosis
grossly
ting
abuse
##iaz
vac
phen
##erved
##ibut
density
biopsy
tum
vo
wires
beca
standard
because
uti
pelvic
possibly
pancreas
wk
demonstrates
sit
mater
operative
portions
hilar
headache
compression
continuous
##cardic
assistance
acqu
(+
80s
septic
phot
based
range
retro
##ope
parent
circ
##dle
palpable
reactive
pse
##irub
##itting
7p
##ieved
##ister
hands
obtain
el
bic
90s
point
##ogen
pseud
##ena
just
##esium
##ogastric
regarding
##idemia
steroids
co2
magnesium
115
axis
##rt
##uria
lives
##codone
discontinued
dig
##unctiv
want
dilat
##uced
persist
postoperative
##vd
went
rectal
conjunctiv
involved
cvvh
easily
calcification
give
##ilet
stern
109
conclusions
##aline
lb
predn
##rs
portion
100cc
constipation
plans
adjust
attempted
##respons
##opic
quadrant
nad
4l
iron
stron
immedi
levofloxacin
evaluated
holding
nodes
???
ru
metab
##isk
suspic
sple
##lycemia
services
apex
##atively
toilet
##ardi
meropen
spleen
sag
##iax
trigger
like
trial
##etic
look
tenderness
appearing
esrd
nasogastric
##lipidemia
demonstrate
titrated
asking
##fact
seem
disse
##cephalic
dors
middle
t1
hypokinesis
##reg
##going
brisk
hydralazine
lobes
##erm
opacification
voice
thought
electrolytes
gradient
##iciency
borderline
recurrent
leukocytosis
dilatation
appropriately
examined
appointment
smok
##apeutic
peri
##asm
##eritoneal
significantly
unrespons
infl
nitro
##ittal
la
112
ent
lumbar
pericardium
prednisone
bacteremia
drawn
weaning
ceftr
divertic
enlargement
cardiomegaly
wed
mrsa
discuss
urinary
successful
monitored
direct
urean
##noid
fibrin
pancreatic
pmhx
eg
try
congestive
origin
qs
sus
bru
involving
tumor
##aker
##achnoid
tox
joint
injection
bloody
reform
##iaxone
indep
fist
extra
upr
dropped
oxycodone
hypertensive
##irubin
acquired
##azolam
pca
##???
##olar
pack
##acillin
dissection
cva
valu
sagittal
...
138
??????
pn
anticoagulation
stop
interatrial
space
nd
000
narrow
finger
##ogenic
metabolic
facility
ceftriaxone
depressed
life
mem
prec
integrity
flex
obstruct
##iat
anti
echoc
##openia
##ense
facial
break
echocardi
continuing
confirmed
collar
apical
##vers
cd
kcl
local
gastric
swan
artifact
somewh
ivc
10mg
paced
irreg
anesthesia
dorsal
strong
##urning
include
surround
somewhat
degree
supr
discomfort
administered
hob
##ulose
##np
yet
##omed
scant
desats
##dol
top
apparent
##ancy
##oper
##get
##train
put
##ument
##antin
subar
upright
111
>/
lactulose
135
cbc
##ives
residuals
##cx
even
coughing
##gency
haldol
transfusion
used
seizures
doing
took
aggressive
temporal
450
husb
interstit
dilantin
sac
subarachnoid
bottle
##orous
##imated
pacer
hemodynamics
##sive
##epam
ercp
anxious
checked
mo
##set
wid
structural
139
##ential
drink
esophageal
##ittle
near
confused
beta
interstitial
muscle
husband
meth
collapse
##tion
hypod
peak
liters
immun
procedures
##emaker
sternal
sinuses
signal
lid
retrop
meropenem
defer
ing
angap
kidneys
##ces
vitamin
113
##***
premature
114
consist
swit
endocrine
rounds
##uled
pacemaker
##isions
productive
enhancement
extending
physi
wounds
term
plav
conjunctiva
mel
##jective
little
medicine
plavix
bag
137
3l
rub
drift
stick
described
months
perfusion
wind
midazolam
comb
##verse
tit
##cardiac
react
turned
intervention
nec
##ipine
fibrinogen
vasc
q8
docus
docusate
ears
lfts
intrap
##sw
##ips
physiologic
infiltrates
##aphy
##ternal
scheduled
prolonged
congestion
bile
window
trending
onc
##osph
ventilatory
tibial
emphys
independent
141
cond
hypoactive
basilar
normally
pacing
titrate
cardiology
az
coccy
thrombosis
##rought
dependent
##otidine
brought
withdrawal
##ering
exacer
unresponsive
##ixed
eeg
famotidine
dol
bar
mar
##zym
##ella
exacerb
##lems
dated
problems
suggestive
##ram
slowly
each
70s
##inum
##neic
##utter
recommendations
##form
nutritional
serial
##acco
##aring
.<
surrounding
t2
bac
##sth
nurse
tobacco
cefep
tolerate
restrain
arous
allow
saw
20mg
##omediast
bicarb
dorsalis
focus
fistula
136
larg
make
##aff
reb
drugs
pleas
returned
cefepime
structurally
begin
ful
shoulder
confusion
ros
ground
uro
definite
coccyx
142
##over
ambul
##ned
enzym
##uous
lap
filling
clinically
pedis
labor
*********************************
indic
##iness
##jection
plateau
ff
irregular
nodule
tinged
##ules
appreci
retrocardiac
##ietal
title
##tron
normo
##ru
aspirates
##per
##ished
##bili
feb
indicated
requirement
educ
##anding
hepatitis
vessels
egd
epid
occl
piper
person
root
lg
veget
saf
##atous
foc
mesent
informed
febrile
116
##check
tidal
vir
##artment
tachycardic
##conate
##rex
list
covered
som
loose
infer
60s
##ography
##hoff
hematology
##gm
dopamine
esophag
hard
cause
demograph
encephalopathy
pulled
piperacillin
demographics
complex
gluconate
tv
perco
inflamm
118
550
another
screen
tor
tract
sen
fair
ank
tro
coil
##ify
mean
frequently
french
coronal
##arditis
ffp
ili
##hep
enzymes
ventricles
mag
hyperlipidemia
answ
tachyp
##ocaine
2mg
contain
tachypnea
resolution
volt
##isc
##phone
overlying
gib
1l
passed
##phrosis
needle
chills
hospitalization
wheezing
waking
opens
bsa
showing
prote
job
##onephrosis
vitals
lethargic
disorder
recons
reflex
##sus
ciprof
guidance
terminates
lul
cvl
nephro
recheck
epidural
jaundice
brach
oper
134
responsive
notable
##ote
##etal
hypoth
##vir
##ble
cooperative
##adol
hepat
##akes
servo
thir
tar
asthm
117
##moid
dni
outside
pale
emphysema
ciprofloxacin
compli
hydronephrosis
wrist
##ered
health
notified
onset
axillary
diltiaz
aspect
subsequently
asthma
##ture
##hepatic
decomp
##ray
##inct
emergency
endocarditis
aline
sxn
sister
scat
##oscopic
2d
##aves
suspicious
fully
##cephalus
##oin
/=
obstructive
prost
ongoing
maintaining
bilious
##trate
diltiazem
##cinoma
insuff
percocet
sda
tent
request
extended
extubate
compon
mdi
necro
rare
attempts
ga
sleeps
pump
##lim
tab
deter
lidocaine
occip
##ood
##urity
nons
##entive
emot
hypothyroid
colitis
##mic
iliac
neuros
##icillin
sutures
mast
getting
grams
longer
infusion
appeared
vi
lr
senna
neurology
##iny
turning
dad
phosph
py
##asty
quiet
sah
nont
ha
patchy
marg
gua
##oud
tear
ppx
retroperitoneal
sdh
650
qid
##gi
stap
spoke
##elds
motor
move
##azepam
standing
green
emotional
cyan
records
lift
ip
narrowing
partial
phone
calcified
1mg
##yo
deferred
enteral
nodules
resusc
##omin
##unt
therapeutic
nontender
119
h2
##02
sigmoid
exacerbation
afof
tempor
scattered
145
improve
##chron
sterile
prelim
##ellar
sustained
leaflet
stated
5l
ausc
##olol
thyroid
protected
##ef
mesenteric
perform
mucos
expl
goals
close
sbt
##wn
number
cream
tissues
prep
##oses
nond
filter
##teric
consults
fellow
##rod
aa
##etry
becom
##ostal
resolving
walk
ankle
estimated
pco2
nor
monday
healing
##ulature
##gent
parenchymal
fri
paracent
phototherapy
tartrate
hc
##ables
wake
purp
matter
telem
##time
dou
cort
reconstr
500cc
ho
came
po2
##rip
##ographic
broad
nr
##actam
122
apprec
preserved
133
catheterization
waves
telemetry
ivp
143
char
normocephalic
liquids
uf
intermittently
avoid
##ead
protein
cardiomediast
ace
##ew
auscult
maps
132
key
feeling
pap
seros
copious
restless
suggesting
mediastinum
dispo
transfuse
generalized
replaced
##eps
fatig
144
external
pedal
nested
saline
ua
conts
pnd
transient
append
128
hypoxic
cardiomediastinal
valuables
appreciated
121
##romycin
failed
##sure
##enicillin
cg
##ends
nonspec
neurosurg
colace
eom
material
bilirubin
platelets
##ales
sclera
##====
40mg
nonspecific
state
##oz
##aque
##down
orally
##ring
offer
remainder
tele
ger
124
periods
fiber
chil
taz
penicillin
radiologist
crrt
pathology
saturation
radiographs
father
presentation
cpt
starting
sugars
feet
font
solution
conc
##ptal
transfused
legs
icd
hyperd
##trim
<=
occipital
50cc
##..
lt
##iced
nst
compliance
hcl
tl
ec
svg
##eri
tun
explain
126
##iventricular
paracentesis
##ten
##icle
##ng
q1
d10
confirm
transp
tips
thrombocyt
##aturity
doc
emesis
component
og
mell
serosang
##ipl
##olemia
ox3
mob
fact
office
bb
parietal
consistency
provider
qrs
mellitus
critically
minimally
ts
##cine
windows
narc
vasculature
conver
relief
developmental
gm
##orient
hyperc
aml
notes
voltage
presumed
represents
##ematous
##ids
131
##entesis
pleasant
physically
30cc
versus
reflect
fusion
potential
empir
prostate
multif
vss
stab
##gms
##bing
##born
rx
lor
insufficiency
restric
123
rectum
cb
##nel
supplement
embolism
tiny
usual
medial
##ouse
cholang
##oscler
ok
##br
newborn
##24
##den
##thr
##ococ
bronchoscopy
kn
##lanar
trip
##izing
hypothyroidism
erythema
##entially
lymphoma
bactrim
markedly
multiplanar
intraventricular
##ner
track
bo
document
pow
fasc
specif
##astic
##ond
##me
mra
sheet
experi
mening
ess
##pping
nstemi
##ised
angio
aud
gap
microbi
ion
length
oxygenation
load
receive
parenting
ri
##ty
eomi
inst
reconstruction
multifocal
tamp
##iff
presenting
##ising
asked
seems
nsg
atheroscler
case
abgs
vented
partially
##wp
least
hyperg
sch
cholecystitis
sternotomy
too
herni
vel
decision
##als
trem
tampon
began
vasopress
24h
129
127
movements
microbiology
gerd
precord
problem
atten
sk
##ka
hemorrhag
entire
purpose
hypog
##erc
series
occasionally
rca
##iotomy
stre
stain
initiated
comfortably
distention
restraints
tamponade
correct
denied
mastoid
##oseptal
cyanosis
##cid
therefore
##asp
lp
##ording
prbcs
dement
touch
displac
switched
350
iab
##ither
lorazepam
labile
according
diagnosed
character
hiv
##aching
orders
ready
ruq
ot
**
hsm
rvr
passing
teeth
rot
project
arrived
staff
mmm
ann
tablets
##ulmon
objective
rebound
anal
lib
thigh
fields
##geal
glass
defic
mostly
##omal
cur
veloc
underst
##icteric
iabp
##aqu
guiac
briefly
midn
butt
worse
demand
##ropharyn
occlusion
pad
##za
foci
##itations
q8h
anicteric
ballo
ooz
clon
ica
##aped
tropt
tazob
##ry
concerns
tazobactam
metron
dementia
dark
thrombocytopenia
##aps
q12
metronid
gavage
##iatric
##dg
temporary
metronidazole
spontaneously
##ences
cultured
benef
gavaged
1500
stimulation
##antly
remaining
perfor
##etermin
##icial
contribut
necess
bul
warmer
sucks
ye
toward
pig
balloon
##itrate
##ropium
radiation
inserted
##ophr
fatigue
50s
hydrocephalus
command
serous
##ety
bedtime
routine
tachypneic
murmurs
route
double
cpk
bld
##rin
lytic
##fa
atro
encouraged
800
transport
flutter
torso
serum
##vastatin
clinic
possibility
planned
##inetic
diaphragm
antibiotic
such
presc
cga
##oplasty
fluoroscopic
##rum
##zz
third
brother
conduction
purposeful
##ues
house
(>
educate
viral
arousable
ingu
##olateral
##hs
##cs
prong
##iasis
reass
700
oropharyn
mn
##oric
making
lay
inguinal
##ffect
medicated
##iplinary
##oxin
fung
cis
gest
hypov
quick
dsd
yeast
presently
146
splenic
##ulmonary
either
deviation
10cc
##val
own
promod
##des
##iaphragm
malignancy
what
cardiomy
attenuation
protect
ejection
resist
transverse
spik
intol
ampicillin
##yle
##uo
sync
esophagus
nip
arms
safety
disl
prosth
(+)
##enox
simvastatin
dobhoff
freq
firm
remove
exert
##wa
procedural
signed
pda
##ibution
hyponat
digoxin
warf
nrb
hyperglycemia
##olectomy
slu
penicillins
satis
warfarin
##uncture
cardiop
valv
tunnel
appro
expected
insertion
>).
##phor
paran
department
hypercarb
iii
##isciplinary
varices
know
exerc
ciwa
atrovent
dizz
got
myel
appreciate
femur
sensation
##ignment
bottling
intoler
##oracic
decreasing
##omon
##tc
vena
##inephrine
breakdown
##yc
##asone
icp
atherosclerotic
ileus
inferolateral
inability
repositioning
##ases
ipr
##hydr
##asal
satur
decub
dressings
guaiac
billing
##zed
best
ach
##lovir
linear
overnoc
satisfact
limb
evol
##ii
##ej
capt
attentive
contract
amber
spit
fontan
intensive
mdct
respir
bath
iprat
sites
25mg
diuresed
positioning
ator
##itiv
partic
cardiomyopathy
statin
vasopressin
##amic
cerebellar
tolerates
girth
neph
q4hrs
going
beats
##nat
60cc
##rose
unli
send
provis
ulcers
##ontin
##meq
##anz
terminating
supportive
staples
circum
discussion
toxic
cellulitis
hemodialysis
malignant
anast
orthop
lle
atheroma
tot
ntg
effort
provisional
cleared
amio
atorvastatin
##kely
buttock
suggests
ganz
auscultation
cvs
anter
intervent
distinct
##iogram
dosing
immediately
pvd
o2s
tolerance
audible
##acl
lovenox
rising
waveform
communic
schedule
qhs
yes
##luen
calm
il
decl
tsicu
ket
##ushed
jv
##ross
cava
glands
superf
doct
calib
##iteal
unlikely
midnight
valium
##fen
levoth
canal
coagul
##acia
talk
##luenza
##vious
##alemia
maxillary
##yrox
rales
speaking
worsened
interd
5cm
##lycer
hcp
##arm
##thritis
ich
shunt
csf
satisfactory
diaphor
140cc
pneumob
aeration
weighted
##units
hydrom
1600
positioned
hyponatremia
inhalation
presence
##rees
unst
thr
fraction
##cus
recieved
bon
##yroxine
hydromor
sulci
##odipine
six
scar
##osol
ipratropium
jvp
anterol
##chol
representing
node
powder
interdisciplinary
##oflow
preliminary
autoflow
grav
##opliteal
+]
exclude
hemid
##atible
chart
mucous
necessary
carcinoma
food
##adone
hydromorphone
eng
##ubic
splen
##ejun
grim
superficial
levothyroxine
comparisons
##ription
147
##lux
sph
accept
immediate
flatus
fh
bottled
precordial
aerosol
148
them
drifts
caliber
gestation
##inous
popliteal
lot
severely
stones
osteop
stric
included
slept
tests
puff
compatible
##ides
their
epi
perl
##ynamic
##istended
lant
##ws
##ged
considered
rij
diabetic
disloc
duoden
nodular
herniation
progressive
thoracentesis
somn
##eed
obvious
craniotomy
nnp
dext
*#
melena
azith
hypernat
wash
##enia
upt
##ogene
rhonchorous
##abd
##vo
ureter
repositioned
toes
##tail
rig
dx
running
nb
sugar
paranasal
guided
pyl
3mm
cardiopulmonary
perrla
pep
nondistended
influenza
collections
colonoscopy
##uses
##hilar
hemorrhagic
##urs
rle
fdg
##so4
brings
plug
lantus
dict
##ulos
measure
reco
located
##airs
mixed
chemo
films
staph
##s2
##ays
100s
altern
aden
x4
reduced
kepp
clav
many
##aries
diaper
keppra
##kele
##keletal
sensitiv
nour
1800
includes
occup
spect
protection
hyperther
palpation
##ching
triple
mca
nourished
persists
reorient
bony
enhancing
ctrop
recorded
pts
beginning
alkal
emergent
ctropnt
pet
clips
multiv
obes
q24
pepcid
hyperthermia
vegetation
painful
milk
pigtail
phenyle
190
reportedly
relatively
late
ems
clamp
reglan
##oney
750
##urred
echocardiographic
lig
captopril
born
rue
loving
wob
responded
>+
prolapse
wheeze
speak
##sp
smoking
obesity
attempting
sheeps
particip
##rexia
stranding
somnol
20cc
brb
##umm
heel
vag
percutaneous
critical
##onate
sheepskin
##ware
155
diverticul
##omonas
brachial
essentially
heter
quickly
240
xray
##ging
palpitations
ol
##unting
##stick
lue
##ronch
kub
fos
hypoglycemia
inflammatory
stabil
wat
##cious
##illed
dictated
resum
##ogeneous
gave
hypoxemia
bc
prominence
derm
swallowing
40cc
specifics
kept
prescribed
foram
causing
pyrexia
angiogram
ortho
##dren
planning
summ
systemic
q3
nph
phenylephrine
##etite
##ector
compress
cost
repeated
reformat
##itten
##ally
##onam
pall
cloud
extension
complaints
guide
angiography
hemopt
80cc
##ensities
130cc
ov
coord
hardware
imaged
gadol
irrit
##ithiasis
ue
anion
lvot
severity
five
gadolin
cards
sequ
hemidiaphragm
heard
magne
parameter
##vist
lymphs
gtts
anas
reformatted
magnevist
money
written
involv
s1s2
asd
come
sclerotic
eve
feels
cloudy
zone
##omalacia
gravity
2nd
hypernatremia
sitting
adjusted
bbs
##thing
teaching
noc
loculated
workup
directed
monos
gallst
##etalol
##iday
hit
tong
opening
neutrop
hemoptysis
fed
##ibility
osa
poly
00am
bis
entered
occupation
##oplasm
predomin
labetalol
hearing
lack
##ameth
electrolyte
contig
ecch
##mmhg
determin
dup
intrapar
codes
kvo
prematurity
wal
debr
resuscitation
anasar
yr
##15
appetite
pressor
clots
gait
duodenum
#)
phosphate
contiguous
%/
anteriorly
##logy
requires
conscious
stemi
##ophrenic
kcal
deform
particular
1st
doctor
dextrose
##yclovir
pull
jaundiced
c5
##room
pneumoboots
introd
tongue
gran
##stomy
ecchym
##erve
c1
fer
bur
indetermin
marginal
flucon
perforation
d5w
anteroseptal
##self
nyst
colectomy
##omas
149
30pm
175
tracheal
visiting
##gram
taper
coags
consistently
##cles
q12h
bacterial
wallet
extends
determined
decided
bronchial
sensitive
clearance
acyclovir
reach
reflexes
dizziness
##iving
anastom
osteomy
intraparenchymal
neurosurgery
recovery
diverticulitis
##36
exercise
subcostal
sacral
30am
##************
##feed
*****************
l5
lvh
milrin
##wire
await
mvr
mso4
growing
##itamin
hyperk
club
1200
##***********
chemotherapy
drops
trachea
stone
correl
##***************
##eria
##aces
mucosal
requested
120s
thicknesses
*****************************************************************
incisions
********************************
****************************************************************************
aaa
lacer
##uric
##uted
milrinone
vig
##iment
index
echocardiogram
##gg
atenol
evident
indeterminate
fungal
away
40s
methadone
atenolol
ak
spell
cholecystectomy
c6
words
calor
oozing
branches
gnr
dilation
criteria
subst
pneumo
##tribut
fluconazole
sao2
##26
evac
##ertain
angle
tlc
children
##leep
##len
exertion
dislocation
##elitis
##alog
alkalosis
clubbing
asleep
linez
cat
##phos
layering
becomes
##azolin
redness
cdiff
cysts
ctab
##odyl
pole
##vert
fontanel
154
liter
diffusion
bif
4mg
svo2
repletion
costophrenic
nic
##sf
l4
fut
alter
linezolid
anasarca
coagulopathy
##opram
atn
aug
zof
##ursion
cefazolin
mets
##ored
rubs
excursion
duration
oac
refused
summary
gang
##imum
q24h
supervis
etc
bisac
zofran
multivitamin
prevent
black
prepped
##opro
minute
osteomyelitis
bisacodyl
##alyzed
augment
plts
tight
##imp
syncope
152
oint
um
marrow
obsc
##entr
tsh
displaced
##amycin
humalog
anterolateral
rupt
prosthesis
##aquin
incident
progn
chew
future
belly
asym
corresp
interim
##term
completely
closure
##ilic
larger
involvement
extent
frag
##ying
wakes
200cc
hypodensity
levaquin
solid
higher
biventricular
blank
fash
fell
detailed
ran
##epr
parameters
heav
fix
fashion
member
ranging
benz
##ras
died
perihilar
smaller
never
resume
lipitor
maternal
decompens
lac
##oxic
pseudomonas
##ocy
##ionic
administer
hyperchol
orif
pma
detected
embolization
##usely
thi
165
cardiogenic
##utional
haz
edematous
interactive
traumatic
towards
repl
##yma
blanket
reint
whether
cvicu
1700
00pm
parench
converted
intrahepatic
prognosis
##ynchron
gout
cvvhd
lav
##ptomatic
tunneled
nutren
takes
cand
220
parenchyma
incomp
annular
mvc
elb
unstable
refill
atyp
ionized
induced
eating
indicate
spir
##uce
incis
sbo
ict
distant
eventually
brad
##urance
injuries
screening
explained
##eprazole
bg
orb
pvcs
##olysis
##quist
successfully
wa
noncon
medquist
medquist36
jobnumber
##idate
ln
listed
settles
##enoid
vision
##vertebral
rom
##actone
visited
quit
##ologies
issue
mobility
gp
##ias
ew
##cle
working
affect
carb
friday
concerned
ostomy
barri
hyperkalemia
ven
##uloskeletal
elbow
observed
##bb
mac
azithromycin
musculoskeletal
reactions
brbpr
diffusely
ice
pubic
consolidations
151
cardiover
gadolinium
irritable
combination
une
pls
twin
##imize
amlodipine
sud
lying
##asia
alignment
allowing
ceft
100mg
rod
asymptomatic
reintub
ld
skull
##ighth
semi
##oli
attention
reflux
guarding
ams
hematuria
adh
curve
alteration
tort
omeprazole
dense
extrav
ruled
accident
card
##ipime
##itic
sediment
bradys
pmv
153
paralyzed
ductal
5mm
nonionic
diurese
akinetic
velocity
##isph
##ises
valvular
empiric
reaction
bcx
c4
##rectomy
alone
cefipime
aspirate
ten
thiamine
draped
desaturation
redd
degrees
neoplasm
alkphos
6l
allergy
30s
##ptic
norep
afsf
epile
espec
+.
experien
lima
folate
clamped
irr
hypercholester
fast
##ymme
hydration
##x1
abras
sudden
concentr
mus
vna
cordis
latest
hypother
dropping
##orb
ste
totbili
oropharynx
trached
factors
duplex
especially
bound
preterm
buttocks
c2
##erly
documented
stents
chewable
##nc
bruits
##erus
diure
##ages
ileostomy
(?
extremely
fixed
asymme
##lycerin
flushed
pitting
risks
surf
complication
ll
contusion
responding
##rophic
heterogeneous
dysuria
consciousness
##ytoin
incid
incomplet
unsu
melan
peritoneal
softly
156
careview
hypercarbic
hemith
##ococcus
adenopathy
scro
130s
reduction
umbil
glarg
cephal
uter
laceration
flank
meningitis
closed
##romide
qtc
cistern
##angu
additionally
encourag
sternum
barrier
1300
numb
subt
ceftaz
correspon
ib
##amicin
surge
glargine
gentamicin
incontin
dm2
##mitted
cholangitis
pulling
##apt
tues
bu
oph
sun
analysis
drained
pil
vari
laboratory
1400
diverticulosis
##esoph
nitrog
lipids
soon
sized
basilic
page
exams
##ceed
plaque
4mm
endoscopy
unless
panc
airways
hemithorax
median
recover
gallops
fibro
inflammation
nebul
dd
##itidine
##orial
ablation
##pro
lighth
grand
hypercholesterolemia
prof
config
visible
acceptable
newly
##inated
triggering
##ours
##bre
q2h
ophth
calf
gms
numerous
cbd
lighthead
kle
suspect
promote
seal
ranitidine
##iter
approach
preg
##arp
secured
##ilat
pcwp
breaths
transitioned
configuration
superimp
svt
swab
colostomy
tb
neurological
operating
pseudo
colored
frequ
numbness
##odies
evacuation
particularly
incons
##rob
transfered
abp
/=.
defined
fis
##onazole
bronchus
bf
spectrum
##rel
osteo
##obronch
##weight
suspected
hemisph
cyt
become
deficits
sulfa
urea
##atal
poc
filled
citrate
seg
percent
nbp
ngtd
jvd
spike
isol
##lob
appl
might
##gmental
wedge
hiat
##olemic
occlu
hygi
preoperative
10am
stenting
bands
##welling
##man
##acy
incisional
superimposed
##space
dehydr
sal
original
##yph
respect
grew
absence
suic
158
synchron
extravas
sg
subsegmental
##isting
hygiene
containing
vegetations
coli
2200
2300
sphenoid
##avicular
bps
managed
lightheaded
dysynchron
##usive
v2
##ously
explor
functional
vigorous
50mg
l1
sips
quite
half
rates
noon
duoderm
fine
##hysis
norepinephrine
trough
##oun
gland
indwelling
##king
##aryngeal
folic
cns
diaphoretic
jejun
##ervation
##esophageal
ends
wks
##veolar
sleepy
##iatr
d10w
l3
nitroglycerin
muscles
anticip
arthritis
smoker
4hrs
meals
psh
##ready
3d
bromide
##otics
ligam
sero
req
##ominal
phase
##itate
##ulations
neurop
##acing
klebs
##45
sam
net
##itness
predominantly
interventions
vea
uptake
duodenal
140s
##bed
poorly
rehabil
nystatin
infarcts
echogenic
162
160s
##hex
##ves
xrt
frequency
arth
moist
v6
lm
##sy
clus
##holic
infants
##40
##ucer
extravasation
intolerance
diag
luc
##obic
formation
eat
olig
appendage
exchang
segments
157
arrhythm
alcoholic
anat
emboli
rashes
unsuccessful
respond
c7
nail
sucking
already
##ances
chlorhex
turns
nox
requirements
lethargy
trying
##bran
members
coffe
aver
##orus
cystic
preop
dopplerable
difficile
##inol
para
reddened
sound
paral
platelet
antibx
fain
fascicular
deficiency
rehabilitation
##ogn
##iella
##eum
thurs
saph
##och
former
supracl
##agia
##entin
debrid
rif
diur
2mm
calories
150s
pregn
overweight
900
cloth
120cc
urology
becoming
dopa
desatur
our
##mine
##aced
##ioma
##physis
ventilated
updates
##chlor
epig
pillow
recurr
vre
2100
colonic
mins
coffee
drs
."
inlet
##ried
oncology
attribut
##asic
##hyp
caring
##thmoid
".
##atosis
##gias
resulting
noxious
hyperbil
##isol
metform
hyperdynamic
candidate
##iate
withdraws
24hrs
klebsiella
parox
##vel
metformin
toe
rheum
neonatal
instability
postop
hcv
pills
##itol
looks
##ussion
instruct
membran
163
commin
sib
ventricul
##abdominal
healed
##50
wish
puncture
fossa
##ropathy
ethmoid
brachio
168
beh
##amil
airspace
inhaler
mvi
falls
##1c
l2
dobut
bottles
participate
pyloric
c3
mush
decubitus
codeine
hiatal
umbilical
resumed
dex
##isms
neos
renally
hypok
subjective
guidewire
exchange
surgeon
ckd
gir
anastomosis
oct
##ks
agents
##ressions
db
suspension
bones
calls
bx
brachiocephalic
dka
neurologically
phenytoin
saphenous
##oliosis
massive
expired
comminuted
hab
nares
symmetr
topical
##ec
2u
description
ibup
pmi
cranial
ta
referred
resistant
cpr
solumed
spot
##igr
dysynchrony
o2sat
distribution
labet
159
cri
##onic
developing
v1
##erent
progressed
offered
drinking
occluded
swol
gab
appointments
minor
q4hr
interc
telephone
##onal
debridement
expector
vide
waveforms
functioning
tach
##irubinemia
across
retention
terr
cmo
introducer
ibupro
runs
wear
orthopnea
mushroom
coming
corresponding
##ros
ensure
##uck
clearly
##hold
narcotics
##sep
ligament
faint
coping
infected
transfusions
excell
biopro
##calc
cocaine
pea
##========
##ocl
gabap
solumedrol
ibuprofen
scarring
patency
unevent
scr
dysph
supplemental
##izations
flair
hives
slugg
manu
advancing
##rade
gabapentin
incidental
20s
##trast
hyperbilirubinemia
babygram
xan
bioprosth
posteriorly
bring
membranes
inconsistent
oz
lcx
causes
patholog
seat
pron
excellent
ointment
s3
clonidine
convers
nature
##ha
demonstrating
widening
uneventful
lavage
differentiation
##otide
commode
sample
center
vp
cbg
aerated
25cc
largest
fairly
manufact
##itory
hypodense
##hypert
161
250cc
neur
chlorhexidine
cardiologist
value
fatty
substant
values
diuril
peel
##ae
##urer
dimension
pregnancy
mss
benefits
lobectomy
0400
360
accessory
tpa
evolving
##ieve
##bg
diagnoses
##creases
transamin
segmental
presum
antihypert
mssa
sluggish
manufacturer
territor
csru
watch
##arily
loop
chor
overl
synchronously
overd
210
reduce
hypovolemia
breastfeed
##itoneum
hourly
distension
instructed
tracking
si
##ril
fore
clar
hcts
neuropathy
alveolar
impl
polyp
##ulent
complaining
diuresing
urinal
gbs
##28
##icles
entry
octre
reformations
perine
periventricular
##most
##itnessed
psychiatric
impact
smear
cooling
atypical
reconstructions
contributing
1hr
swollen
pleur
arrang
sulfonam
mucosa
gradually
cel
gpc
revers
bm20
osteophy
##imeter
##ensives
fi02
constit
lapar
step
##aresis
stabilized
projects
measured
comprom
regions
##acid
uncertain
benefit
cut
mainten
vaccine
indications
heavy
##istr
##ivent
dest
164
necrosis
augmentation
overt
75cc
preced
(~
way
##amethasone
320
sem
octreotide
picture
iss
bmt
clears
respectively
##iveness
166
##tp
##esp
avf
existing
bodies
questionable
constitutional
##ocyst
##aging
lightheadedness
intensity
metastases
cluster
##crete
manage
elong
granul
bump
expiratory
##bid
determine
limiting
reassess
observation
dysphagia
cavo
dobutamine
mann
rise
##cort
##ping
coiling
lymphatic
rounded
##vascular
tracer
increasingly
veh
loud
corne
hematem
barium
dehydration
##odine
projecting
organomegaly
##anse
cholel
tri
##izes
80mg
elongated
arteriogram
ecc
cdi
ram
hyperint
osm
maintenance
cycle
teens
cortical
s4
moved
##atives
plus
multile
uncomfort
auto
erythromycin
clind
ssi
v3
think
pediatric
percussion
##lab
puffs
nods
stairs
##dm
cardioversion
cholelithiasis
mannitol
multilevel
recurrence
##luc
combivent
beat
tuesday
video
sar
apparently
overloaded
##iseal
ambulating
pseudoane
rin
somnolent
shortly
##flex
nephrostomy
symphysis
adhes
hips
uncomfortable
clearing
50mcg
dual
mvp
angina
tortuous
cn
surface
spiked
packed
185
encouragement
vehicle
rupture
drinks
clindamycin
pathway
>+)
leave
##urysm
230
obli
clothes
apices
labored
territorial
##ocar
.]
##tics
rigid
forear
##iatry
##iton
##insic
##sepsis
fingerstick
relative
congested
280
sibling
/.
ophthal
mva
succ
surve
nif
noncontrast
##cation
od
sharp
generally
foramen
rather
wide
7pm
##uv
suspicion
coiled
intercostal
almost
##....
##olarization
cavoatrial
portex
flexiseal
attributed
import
circumfer
fissure
110s
fluoro
palate
irrig
ucx
worker
tracheobronch
##acement
tape
cardioth
flap
carved
ring
empirically
widely
##ocarcinoma
fuo
##ih
10pm
somet
aure
living
##apsed
len
##iative
healthy
##bt
refusing
front
bright
##flow
fixation
conflu
##ospasm
average
melanoma
172
repolarization
agre
##ungin
lans
rinse
told
##inate
##operatively
dent
##5g
labetolol
ventral
antibody
traz
pronoun
reformats
sque
flutic
##).
deformity
##atio
girl
experience
mand
sz
vascularity
markings
metastasis
couple
fluticasone
##roup
gallstones
accordingly
xs
transports
adeq
occurred
nebuliz
destination
respirations
hil
##dy
gastr
flatt
v4
bioprosthetic
needing
sitter
scoliosis
cca
gangl
inhib
aureus
b12
stricture
pin
##lish
pathologic
complained
lansoprazole
palliative
70cc
##labored
replace
##nes
tue
tears
celiac
=>
7am
said
soln
corrected
167
cisterns
overdose
huo
173
blister
depressions
toileting
restriction
atrophy
##ilol
##leman
crani
##nic
xii
##peep
thoracotomy
mis
3rd
0600
pronounced
reson
against
situation
hf
stem
bms
genital
buil
strict
wants
forward
##asyn
adl
##dge
##ride
fibrosis
aspirated
version
+/
hematemesis
unasyn
nh
083
cred
sludge
##imes
understand
bradycardic
##igen
sensitivities
pseudoaneurysm
exchanged
prepar
correlate
178
switch
gentleman
subtle
carvedilol
pacu
forearm
neutropenia
supraclavicular
nodding
fsbs
##erated
shower
evd
bicarbonate
morbid
pen
diuretics
tail
usually
##ococcal
iodine
##lock
tired
nitr
worked
lifting
tried
##iform
engor
qsr
pathologically
fecal
effacement
169
hap
grasp
advis
##gia
gol
##ompl
45am
cocci
unilat
##breath
##terectomy
cash
##opur
##rog
revisions
dial
wwp
hom
##acute
rpr
answer
kil
##bhoff
suff
akinesis
174
cold
remote
myal
washout
##aster
injected
##ption
24hr
##unk
tree
characterize
embolus
bw
bifur
conve
##ox3
relieved
##imm
leftward
cryst
input
pounds
limit
por
ling
##astics
squeez
necrot
bph
cogn
baso
splenomegaly
/+
treatments
disk
epic
uterus
swe
dobbhoff
hear
outl
deficit
sensory
tia
apg
ond
spray
##uit
urosepsis
communicating
credit
##opath
thursday
plastics
cycl
positional
rever
select
erect
legion
defects
inhibitor
shad
h2o
nipple
stasis
177
##yne
bolused
neural
ambulation
hypodensities
thru
married
polys
dictation
signature
hyperdense
rol
gastritis
##utely
fingers
genit
initiation
stoma
##eties
[]
boundaries
tran
testing
inver
helpful
qam
enough
gentle
uses
##x2
ratio
eti
overbreath
##ansetron
independently
ganglia
bm24
jew
makes
retired
camp
##aze
nicard
##care
15cc
appreciable
ssri
saturations
doe
dimer
225
decisions
tremors
shadow
15am
satting
mucus
infections
multifact
ami
separ
##ube
conclusion
allopur
jewel
nipride
extremeties
paroxys
ondansetron
fund
##oo
epileptic
dip
building
necrotizing
bruit
o2sats
legionella
oblique
trended
nerve
says
jewelry
velocities
5cc
experienced
tfs
lbs
raising
fro
cardiothoracic
##ased
##fr
myalgias
attack
hb
group
vats
##imeth
allopurinol
##mt
serosangu
##obacter
scope
cob
176
join
awak
immaturity
reveals
falling
##uminal
##ulous
ability
leukemia
contains
##ibr
evolution
paroxysmal
cross
##obarb
timeout
##illa
restrict
0800
patients
multifactorial
subacute
ambulatory
sang
t12
hctz
##sions
infiltration
zyp
intrath
rifax
trimeth
fourth
bronchitis
asymmetric
##ourinary
orientation
genitourinary
##erg
##ints
discontinue
scal
##ta
ips
decad
coordination
droop
envir
##idal
##ytic
##ropine
burst
myeloma
inner
epigastric
imv
medically
intraperitoneal
t4
##any
##omplicated
environ
withdrawn
angioplasty
##app
board
hydrocort
necrotic
outpt
260
xl
mott
genitalia
oc
##isome
elective
uncomplicated
170s
environment
bruising
d50
uvc
500mg
25th
aro
inconsistently
ft
##apine
liq
ntnd
ug
din
cvr
hemolysis
illic
eld
diss
ivfs
vaginal
5000
dyslipidemia
anuric
changing
##oprim
nicardipine
child
##artan
unlabored
decadron
cleans
visits
trimethoprim
maximum
walking
joints
ment
##arian
##cum
##loid
##arenal
compens
excess
langu
##cillin
nonp
indicating
##atures
formed
language
hemothorax
##cline
looking
##adryl
actuation
etiologies
education
183
aph
flare
arrhythmia
##rexa
brid
yrs
##ky
parking
collect
##onol
seated
acutely
ribs
sensitivity
##idol
480
urgent
expressed
rotation
bacteria
ncat
synth
blunting
##ominant
microp
340
##fully
10th
drng
##nesday
advised
testes
avl
proxy
50am
naf
20am
ge
hypothermia
##kins
facet
whole
migr
gd
pd
benadryl
leading
inspiratory
pci
occlusive
catar
##yr
1u
measurements
eth
##stem
pe20
171
wednesday
contributory
##ocytes
recon
voided
cephalic
mouthing
sick
outlined
q6hrs
##enatal
death
acs
##itud
flor
multid
zyprexa
excor
##erol
thal
steady
15pm
antigen
weekend
ult
dox
collapsed
witnessed
afl
keeping
suscept
compressibility
strep
atropine
enf
##gement
##loy
dexamethasone
incompletely
##read
1100
182
must
kyph
##odrine
opp
lock
sure
driving
flushes
stability
mention
6h
epilepticus
bm30
spironol
181
bey
scalp
##thesis
##versions
medicate
bifurcation
bnp
qday
tingling
##italopram
tabs
##ugger
transaminitis
collateral
displ
mec
vf
seroqu
coh
relax
habitus
beyond
mamm
communicate
proceed
intrinsic
reintubated
surveill
lamine
invested
optimal
improves
xanth
elevations
west
placment
cataract
tons
info
spironolactone
friend
##ges
hospice
dtr
miconazole
45pm
increases
ionic
##cq
strain
deplet
375
often
380
midodrine
##ission
##arget
arg
##cing
ultim
mach
epinephrine
crep
normot
inhalers
sometimes
punct
tam
##iration
target
differences
sore
##odi
40meq
secretion
nerv
hemisphere
communicated
transc
0500
don
##cm2
flattening
focused
coherent
somnolence
##opid
seroquel
behav
##he
40am
ovarian
##ager
answered
sating
##clip
pseudocyst
rds
splint
safe
ampl
specimen
hope
prompt
elderly
***
oropharyngeal
referral
##ze
slower
interpreted
##ped
suture
originally
188
##phritis
hyperbili
compromise
spikes
epicardial
ambulate
##ources
pta
dominant
compartment
##
035
##oe
179
peaked
fetal
panel
methyl
breastfeeding
clott
tend
begun
osteoar
epist
##oglob
lsc
verteb
antihypertensives
ddx
##coma
chips
##roh
likes
##abs
organisms
ferrous
dapt
gestational
215
interventional
##itant
60mg
frank
persistently
hemip
##elled
nect
aflutter
chorda
deterior
##ext
laa
revision
hl
foraminal
rp
surveillance
clopid
##x4
admissions
5mcg
purulent
////
toxicity
prolongation
weep
##oids
overbreathing
normotensive
##aluminal
seconds
inversions
squ
crf
caused
neutropenic
schiz
company
chordae
adequately
margin
anap
thres
drive
declined
##idime
sclerosis
incontinence
bronchi
obt
answering
junctional
wishes
secure
pacs
big
##tum
humerus
restarting
##opramide
270
perip
enhanced
toprol
acetab
narcotic
carbonate
##ogrel
constant
noticed
pharm
195
sust
clopidogrel
metocl
therap
weekly
unco
micropuncture
osteopor
lucency
ronch
avid
##cted
campus
requesting
cert
modest
epistaxis
##ulus
nco2
q1h
rl
ceftazidime
grunting
hazy
##vern
porcine
behavior
convex
supps
leaking
fick
ine
mes
rotated
phosphorus
community
characterized
orthoped
vic
bulb
incentive
transiently
##jected
cts
##estimated
abrasion
tact
waiting
splenectomy
##trin
##du
metoclopramide
##point
mir
suite
tibia
ugib
nafcillin
giving
dire
grimacing
290
##ript
gallstone
##une
crystal
providing
svr
bipolar
intraabdominal
phle
effective
nephrectomy
obscured
accomp
##kcal
mt
notify
myc
anoxic
abcess
levoflox
##ritory
daughters
plasm
##rant
tobram
atelectatic
perh
infr
inflow
sund
205
##opathic
t9
structure
strid
0200
##yg
kang
perhaps
osteoporosis
hypoxemic
pneumonitis
hypercarbia
pick
gets
radiographic
scrotum
##to
aid
bit
territory
croh
direction
ultimately
wanted
clavicle
sn
##upp
dstick
threshold
tobramycin
consultation
anus
scans
25mcg
regulations
1cm
kcals
passes
hugger
amput
embolic
tfi
fal
empy
decompression
screws
reinf
pure
redistr
solids
apgars
kangar
##ached
approximated
nk
drips
points
artic
##operidol
record
hcfa
resolve
certify
lost
##ality
lear
haloperidol
aerobic
gastroesophageal
gcs
cobed
redistribution
shut
consideration
quant
underestimated
crepitus
seemed
agreed
yest
actively
##atten
##tre
prenatal
humid
drg
cavern
##eval
##aid
cla
decline
vomited
flexion
happ
vasospasm
maln
wasting
mentioned
ttp
qt
presumably
##isthesis
iph
equally
others
achieved
??
enterococcus
arteri
ineffect
##ilation
engorgement
subs
devices
reple
empyema
0100
brace
#<
osteoarthritis
himself
rods
##imin
gaining
interpreter
accur
prefer
serosanguinous
syring
rigors
awoke
cast
orbital
##zepam
ih
stra
significance
conne
pneumocephalus
formula
50th
'<
##acity
184
accompan
187
empt
pairs
transported
susceptibility
occassion
wax
420
titrating
flash
##wards
##pan
shallow
##genital
diaphoresis
15mg
ineffective
variant
displacement
examinations
midaz
expos
##idium
ctx
understanding
tra
325mg
fragment
##uated
186
##uter
##alcine
advancement
citalopram
congenital
##rote
d1
nitrite
kangaroo
cco
refr
aztre
integument
##uating
skills
##ezia
reversed
sources
walls
hematoch
##erebral
thorax
advair
650mg
finished
retic
laminectomy
rightward
stating
special
##jejun
foreign
nothing
caff
##acet
decompensation
loaded
##vant
toradol
regime
laterally
##obl
shadowing
talking
depend
##ortic
hematochezia
2ns
df
stiff
symptomatic
##artum
operatively
why
3mg
##ospor
maew
##isis
20pm
##ma
ppd
nurs
sma
##32
##etine
spaces
urobil
neosyne
coronaries
straight
lifts
ordering
dinner
intox
vsd
euv
pril
anatomy
prevertebral
inversion
ventriculostomy
pallor
redo
disorient
doesn
fluct
exh
capacity
suppos
pivs
minimize
hsv
suprather
aztreonam
2cc
intracerebral
inferoseptal
pear
##ressively
works
virus
q6hr
pit
coordinated
dosed
2hrs
nonre
blue
dynamic
gar
45cc
dull
kay
polym
seven
hydrochlor
=.
secre
hepatology
streak
##ibi
dermatitis
##fri
reinfor
vals
log
1000x
minimum
##iectomy
##osec
eight
headaches
circulation
specifically
briskly
q1hr
##a1c
heels
deformities
nos
projection
revised
bm26
fu
##imation
ureters
##eries
phenobarb
prilosec
8pm
189
330
outflow
zant
cobedding
damp
440
probe
dts
immunos
fingersticks
40pm
ingest
ppm
laparotomy
##cystic
alarm
treating
nectar
concentrate
sys
zantac
ded
quad
resonant
motrin
##iazide
##opar
##omic
icteric
flight
intervals
##ount
diazepam
generated
blurr
extreme
nkda
discrete
integumentary
gb
walker
trav
adenocarcinoma
cals
projected
psychiatry
nim
flora
span
clim
##ispl
cardio
isolated
##agectomy
mds
zol
hydrocortisone
trials
prer
.)(
garage
##amed
##eth
acting
cavernous
physiology
300cc
aneurysmal
instead
synthroid
neurontin
gvh
confluent
##uctive
effects
##uloplasty
##x3
sequences
ecchymosis
plant
e20
##ostasis
restricted
exploratory
##arynx
prerenal
faster
hys
parkins
spon
esld
dy
sinusitis
pediatrician
stridor
inferiorly
)/
pv
##friend
precip
##lated
intern
199
t3
pancyt
##uddy
diam
clr
esophagectomy
##phic
ketone
dentition
50pm
ald
suicidal
vbg
##eresis
weigh
shaking
aha
##allic
largely
substantial
850
rifaximin
##amous
4h
##ps
unus
distally
30mg
##enc
vocal
##operitoneum
##onephritis
dul
##oned
util
##be
trazodone
breathe
display
anteg
hematomas
axilla
voids
abrasions
sweats
spok
mrs
ducts
acei
##etir
restrained
##imus
admin
respiration
implant
surfact
ronchi
benep
dimin
alkaline
##ocket
gently
sbps
pedi
push
plastic
fundus
malnutr
screens
pearl
rim
##iceal
antegrade
t11
sulfonamides
metallic
235
subg
ivh
0900
alternating
hemang
dus
finally
important
ambi
##ullary
##udate
neosynephrine
assisted
retained
##oparietal
dedicated
sacrum
anticipate
aggressively
##ulate
196
urgency
gel
trunk
##aparin
catheters
tactile
transitional
##omatous
pads
compressive
considering
##iect
worr
##quate
clusters
struck
201
ambien
pocket
inade
normalized
extract
kayex
208
scleral
malnutrition
pfo
contusions
mineral
tremor
plugging
obl
immunizations
##roban
syringe
surfactant
mmv
perihepatic
ana
##oglobin
attached
##acetam
aic
##itin
supratherapeutic
eccentric
transfers
resuscitate
kilo
##fusion
hysterectomy
context
adverse
400cc
ramus
assessments
uac
supporting
640
primarily
pyel
squamous
cognition
35cc
suppository
20g
10ml
pneumococcal
##cale
dressed
nailbed
##oic
edge
nights
opacified
jejunum
tram
potentially
visualization
continuously
##fast
avm
##arse
technically
rus
ces
jet
suicide
suc
perman
11am
packing
meningioma
sqh
reoriented
##pine
fontanels
machine
hung
expect
icterus
raised
intrathoracic
##vasc
halluc
aphasia
supervising
##acath
haziness
mdis
claim
shi
hospitalized
nursery
hypokinetic
omr
##rotein
75mg
##ondyl
##actory
bair
say
##ilia
##ledge
v5
postoperatively
##othiazide
verap
radiating
nacl
##igg
nonprod
##eless
levetir
##alignment
35am
boy
sulfameth
answers
sticks
atc
bedr
5th
law
lightly
mood
permanent
scrotal
parental
trends
##par
unre
anticoagulated
cxs
levetiracetam
worrisome
gt
refractory
gvhd
breakfast
heated
papillary
##otal
##ils
##ortical
let
shown
fax
192
woke
err
suggestion
amox
inform
200mg
production
##uclear
exposure
##roced
opposed
conversation
diameters
##inations
intravascular
closer
profound
norvasc
opened
sequel
iddm
##atars
parad
198
hi
197
018
supplementation
densities
2400
checking
appendectomy
daptomycin
thank
neu
crohn
features
tachypnic
310
returns
acous
immune
opi
##umb
beneprotein
scars
301
depletion
acoustic
##bo
100mcg
subcortical
grays
hcc
supported
immunosupp
grayscale
bt
##estr
appt
readmitted
pancytopenia
barb
mu
##ork
omn
aicd
symmetrically
hydrox
malalignment
corneal
pop
suct
toxin
protr
basos
275
english
fm
55am
430
limbs
##enter
learning
rheumat
hepator
tbili
endpl
counts
370
fluoroscopy
plantar
hepatorenal
dusky
rapidly
##0g
glide
fragments
sunday
25am
clostr
courses
factor
##opal
cytology
preproced
weeping
##agus
pud
progressively
relate
verapamil
interact
gauze
esm
naps
##thy
periton
narcan
cld
cortisol
entirely
pene
oliguric
h20
##ining
194
twit
aff
aldactone
success
245
1g
sphinct
wigg
##edema
euvolemic
intestinal
pneumatosis
hypoatten
varic
program
pneumomediast
rand
options
chronically
##ipaque
pcv
covering
complains
t10
obstructing
##eu
193
##bpm
friends
knowledge
erythematous
undetermin
drow
bka
prone
multidet
multidetector
>>
bub
perm
angiographic
random
thrush
clostridium
gases
4cc
lun
0mm
auscultated
##ropl
anaphylaxis
##gr
##olax
csm
critic
undetermined
okay
glute
peritonitis
surgeries
##aning
processes
abscesses
east
mottled
compare
osteopenia
spondyl
nearly
estab
##jejunostomy
raise
remarkable
contacts
206
score
pneumomediastinum
4pm
##anol
visitor
illicit
hiss
sphincter
alz
##rolimus
6am
##mins
460
##through
tramadol
gly
bedrest
191
gangr
tightness
lies
217
regard
##agon
amputation
esmolol
alar
wheel
correction
##adine
kyphosis
mp
describ
intraoperative
inadequate
##ways
emergently
tag
5peep
81mg
05am
draws
##done
straw
strips
##omies
##dp
humeral
activities
vasogenic
##eration
hypothermic
ophthalmic
anaer
dz
percentile
##bur
##avasc
cleansed
jaw
dental
javasc
writing
javascript
expand
excoriated
plct
400mg
compazine
##iectasis
statins
##esterol
decompensated
enema
incontinent
atrophic
ju
knees
retr
positions
203
infrarenal
hot
grimaces
0300
cry
equiv
incomplete
crying
basis
##heim
desaturations
adne
drsg
endor
hallucinations
##pred
sel
hypovolemic
travel
milest
##jo
kin
adnex
##atroban
split
easy
warrant
metal
q2hrs
cortex
saturday
cholesterol
##ori
mrcp
580
fo
sess
reeval
pleuritic
cramp
nonproductive
inb
backg
maneu
mep
nerves
alzheim
ureteral
milestones
##mcq
excision
proper
listen
comment
##inoph
##gy
native
true
isos
background
dye
intubate
006
memory
widened
grafting
pneumoth
cig
hilum
blastic
nifed
dysar
hod
metatars
calling
8mm
neurom
##irs
enhance
##olytic
c17
diamox
slowed
##ophrenia
restrictive
abdomin
tested
dt
##ived
lws
rhabd
##oraces
90cc
lc
prosthetic
intraluminal
explan
immature
submitted
observe
##encies
slowing
lup
##ieving
incr
laryngeal
##@@
hydrochlorothiazide
punctate
undergoing
##ouch
irregularity
6cm
##istry
150mg
breakthrough
arouses
##rocy
226
schizophrenia
subf
aloe
##vas
apply
rml
craniectomy
malf
succinate
lysis
operation
siblings
##ograms
methylpred
definit
weakly
accompanied
##ana
circumferential
always
ptca
gastrostomy
calculated
directly
rhin
##etween
##coid
symmetrical
obst
hepatop
>=
##afungin
##phric
initiate
ooze
esp
arousal
perforated
##dur
paras
stooled
inbetween
immob
wd
asses
hbs
##oul
##itude
cholangi
ecchymotic
thrombectomy
alarms
magnesia
subling
account
##aspinal
localization
ampi
ssc
recovered
255
cholangiogram
sp02
pharmacy
anticipated
vest
##lexa
##after
emph
glucagon
voltages
paf
rebre
##buride
6cc
guard
202
indicative
cardior
celexa
restlessness
pcn
##ivers
##ibular
insom
convexity
##ida
nephropathy
mandible
)(
cd4
##uble
thecal
apneic
adrenals
glyburide
bup
pus
malformation
till
humidified
numbers
clavicles
perinephric
eosinoph
reassurance
rsv
micafungin
enfamil
peripherals
difficulties
perich
##ken
rlq
reintubation
mala
herself
hyperintensity
inspiration
##roplasty
ruddy
disoriented
insomnia
dam
##thoracic
anything
sons
spread
thanks
transcription
scap
##loyed
##iar
285
optimize
drifting
putting
slurred
q2hr
##tco2
experiencing
caltco2
enox
dysp
nephrot
supply
cardioresp
##emonstr
##actic
##odin
##shed
perichole
204
265
redemonstr
##uate
rechecked
##enh
chemistry
ruptured
real
reversal
excessive
morphology
nifedipine
recall
secreations
##amide
207
##atracheal
enteric
]<
##omyst
unresponsiveness
tracheobronchomalacia
argatroban
nonf
212
garb
endplate
concentrated
precedex
##ancre
216
reached
parkinson
ves
pericholecystic
omnipaque
imdur
smo
gastrop
##po
prevacid
##icient
rebreather
radline
cerebro
glyc
subfalcine
ethanol
plaqu
incl
visitors
lesser
fav
transm
dissol
plugs
enoxaparin
##enhanc
malaise
hemostasis
##nar
##izide
bronchiectasis
defibr
bottom
##orbide
downward
pmns
subcent
smooth
preprocedure
ced
435
mucomyst
golden
periodic
##tress
allergic
blisters
subcentimeter
##fol
transthoracic
facil
20cm
transl
nabs
paratracheal
##by
parap
delirious
dfd
##head
raises
##ocin
410
8cc
tragus
popup
##iver
webt
webtag
radiologists
loves
hypovent
4am
pyelonephritis
aids
paralysis
20meq
perla
sarcoid
medium
core
mls
supplements
##back
lunch
mill
##ley
##lectomy
##ius
quadrants
pb
##osity
dulc
sublingual
oxacillin
##oneal
artific
##ulsion
##isolone
lingula
delivered
thereafter
ota
repleated
218
smoked
variceal
./
##ucted
gastroenter
##ett
213
glau
##ypt
word
goes
overlies
aqu
withdrawl
human
lotion
neutr
##ocentesis
209
glaucoma
bridge
sid
##aortic
sirs
unw
##chan
##22
##urium
180s
distance
purple
##sc
osteophyte
nare
##legia
suprav
gif
maintains
##pn
uncon
##mn
autodi
teach
benzos
##odil
isosorbide
highly
revealing
hemorrhages
0730
conv
efforts
390
pouch
##ucing
stimulated
1cc
##itary
glip
thrombi
triggered
520
conjunctival
nonfocal
portacath
##vular
mobil
hodg
##upr
role
syncopal
unusual
respons
clotted
oncologist
destruction
''
##oxazole
stayed
t8
##otr
blurry
bn
garbled
8am
##rontal
power
relaxation
completion
tonsil
##valent
artificial
gastroparesis
glipizide
##ores
polyvalent
llq
microvascular
lenis
fibers
supraventricular
##trum
vasculitis
keto
pneumothoraces
##kn
##ocor
nadolol
serologies
12am
quietly
hemiparesis
##iece
autodiures
lupus
ferrit
cerebell
preparation
##arinal
dst
oil
dullness
radiop
nebulizer
222
vertex
intolerant
##otine
escal
2pm
ligation
1gm
ivdu
packs
sulfamethoxazole
##april
cleaned
aop
nebulizers
blockers
##ik
500ml
##itable
nsvt
attend
ketoacid
214
ero
q3h
situ
arouse
reverse
swimm
reflects
tors
adding
depending
esophagitis
damage
##ometr
223
ketoacidosis
coagulation
##cip
vits
##chair
metav
looked
variable
exploration
nephrol
bnz
inn
560
various
else
acetate
find
interested
##mother
4th
combative
adhesions
preceding
cecum
##odz
bnzodz
3cc
6pm
ultram
fibula
rsr
barbitr
lots
shaped
mecon
packet
upset
bathroom
lmca
immunization
##lon
sangu
##iva
express
hyperdensity
intravenously
540
wheelchair
meconium
11pm
221
227
endurance
circle
470
##morphic
dulcolax
alle
adhesive
##uscular
ecchymoses
exceed
fibroid
juice
dural
##etia
plat
plane
decompressed
hn
oxycontin
amplitude
concurrent
##ocial
hole
55cc
dmii
divided
staphyl
##bx
t7
##isplaced
allowed
doxy
frothy
hepatopetal
thighs
hop
casp
class
normoactive
##oking
950
infused
arising
returning
228
cholest
##wf
inital
sense
amoxicillin
rrt
connected
emphas
##ycl
nscl
extrahepatic
##ystolic
##ero
electrocard
complexes
##yzed
ranged
estimation
shields
metavision
mainly
trophic
232
hemangioma
##azone
limitations
intrapartum
formal
##ocular
##cycline
a1c
tacrolimus
paraspinal
##ilex
loos
##days
maes
##roll
cdb
vicodin
occassional
bank
knows
coils
grandmother
mort
lights
suprap
parenteral
extens
nicotine
foul
qpm
ulnar
cooper
3vd
hyperinf
##where
3pm
238
supervision
oliguria
itching
olan
tld
priors
ccy
h2b
fibersource
sutured
mini
ingestion
reference
conversion
urinalysis
scene
puls
clonazepam
titration
##onectomy
epo
radiopaque
gaze
notably
##ipple
interp
contents
onto
shaft
distur
lcs
recommendation
olanz
##cretion
deformed
glucoses
posturing
mobile
##enced
##otrop
actually
hfov
transv
endovascular
##oxetine
nimodipine
eca
##olum
collecting
deline
asdir
##alate
dampened
gated
troponins
fle
unres
219
tapered
268
530
##orph
paradox
##nds
obtaining
nephrology
nondisplaced
extend
nephrolithiasis
##apped
addressed
acidotic
nonreactive
those
mepilex
helical
sparse
receives
sedate
hous
leni
18mmhg
methylpredn
pk
replct
steri
mgmt
pneumonectomy
211
teg
2gm
adenoma
nat
rbb
##tructive
certain
render
grimace
echogenicity
246
relevant
separate
##meter
alzheimer
295
dng
tremens
##oplastic
##iters
stir
worsens
arrange
fena
exertional
##ches
kinair
>'
fld
720
endometr
precordium
blockade
play
237
ligamentous
dissolve
305
cpb
cardiorespiratory
thor
2lnc
photo
##erous
ambulance
233
tendon
##ifen
##net
hypoventilation
pharyngeal
electrocardiogram
##amina
deh
pe24
ao
##kes
##elial
bronched
gluteal
5pm
sedating
appendix
bm28
pericarditis
drowsy
hemorrhoids
baths
dizzy
exhib
resulted
vertebra
vesta
explanation
mont
##irect
contractions
encephalomalacia
whipple
##ancreatic
antec
##soas
##omen
eager
sgot
means
lith
resultant
calms
##remic
unav
peroneal
antif
substance
regularly
##grade
walked
lam
crushed
##ember
biting
clock
reflecting
nodal
multil
fif
##orrhea
35pm
cll
crypt
om1
315
osteophytes
intoxication
orthost
exact
agrees
anatomic
hypoper
sgpt
mci
tubing
243
224
weaker
enal
administering
wearing
rbbb
##ault
muir
##inder
12pm
premie
spirom
anaerobic
##ceased
train
##ulum
cigar
sulb
247
hbsag
272
gentamycin
variation
##thria
occupational
didn
paper
3hrs
blow
thalamic
delta
fifth
sulbactam
##onia
remember
penetration
d51
echot
bigem
##meterol
substantially
ama
ivig
reasons
salmeterol
eb
swimming
peripherally
prophyl
diaphragmatic
##avir
aaox3
bmi
glidewire
5g
orbits
##cher
t6
radius
extraction
##ythm
257
mechanically
trouble
plain
dysarthria
extraocular
....
capillary
##aids
cea
##exture
sulfonamide
intervertebral
##ux
wait
echotexture
antifung
therapist
finish
bulge
olanzapine
leaving
insurance
supervised
indx
abut
squeeze
instr
##enem
crisis
corneals
gj
##ofungin
unavailable
##ensions
279
aster
##ogenous
hypercalc
##quin
##yloid
broken
mattress
metatarsal
resistance
definitive
enjo
##work
warranted
dir
collaterals
peripancreatic
##idone
prav
describes
comes
haart
hypokalemia
ophthalm
reporting
ulceration
yourself
paged
unsure
##mcgs
plaques
carot
tonsillectomy
opiates
##icine
##osa
centered
##emb
desitin
horn
##iaphragmatic
##olumbar
lbbb
arranged
maroon
fullness
nsaids
olt
contamin
ker
1630
hepatosp
rubella
236
dsgs
pneumoperitoneum
guaic
##ureter
7mm
deceased
subther
1x
hapt
retraction
selective
anastomotic
encephalitis
##phrag
uremia
zones
aneurysms
pent
circumflex
sphincterotomy
live
chall
sentences
spirometer
retracting
photot
irrigation
locked
twi
der
resistive
chain
compensated
phleb
mainstem
strip
pillows
18g
dimensions
dw
wbcs
corp
##obs
hypoperfusion
undergo
##acurium
ports
thoracolumbar
expanded
indocin
bifrontal
sides
125mg
myelos
tal
ipf
esbl
speaks
##mit
snds
reversible
cerebellum
horns
superiorly
instrument
suitable
229
psychos
toge
uncal
bleeds
1730
reaching
##urring
allev
chin
cks
65cc
circumference
together
##iene
ulcerative
frontoparietal
##aryng
perib
sublux
hick
flovent
##parent
##emed
org
capture
displayed
neobl
removing
polyps
vague
moaning
understands
metas
exception
vl
125cc
nystagm
wheezy
voric
##phragms
cords
element
##lott
##organ
hepatosplen
samp
tetr
venogram
emphasize
amph
rtx
1230
##fate
##ipt
ekgs
medially
referring
239
nystagmus
resuscitated
logroll
gone
##ails
injections
nib
25pm
nasoph
bandemia
##uli
##ortion
valsartan
staphylococcus
men
uterine
azithro
lips
##aumatic
##hco3
6mg
##ellular
##stance
>**
wrap
worsen
cues
##ield
490
posture
containment
2x
maximal
acetabular
psychosocial
244
calorie
blind
dosage
##atheter
clinda
loading
##ocytic
lotions
##inet
##ocomp
brainstem
igg
##ovenous
tenuous
neosure
##vealing
3x
asterix
bue
##pread
gained
##zol
keflex
diverticula
wides
hypertonic
cellcept
ptc
suprapubic
demerol
zocor
immunocomp
widespread
##ants
tracheomalacia
6hrs
noncontribut
mwf
##trated
accessed
conjunction
pe26
peribronch
hepatosplenomegaly
unrevealing
manip
bubble
5am
ambulated
angioedema
hypercalcemia
withdrawing
screw
moniter
resolves
colch
achieve
xanthomas
##uprbc
descended
timing
asps
##brane
50ml
rolling
##emet
lij
2units
sequent
##immune
##traline
spanish
atyps
clavicular
noncontributory
proximally
tom
dens
postp
##dev
nibp
bull
mgs
leakage
anterolisthesis
248
triglycer
sertraline
electively
donor
vii
antecub
vomitting
wrapped
##iphasic
cisatr
rejection
cigaret
russ
200s
bedpan
ectopic
ivs
orthopedic
stump
bedding
mentating
##neumothorax
tricycl
membrane
fatigued
ldl
##rosc
manual
banding
lacun
451
thirty
expectorating
##rupt
05pm
anticipation
voriconazole
##fed
d3
hydrop
##icians
skeletal
taped
girlfriend
##la
lcws
rhinorrhea
deemed
##........
1pm
##inc
##imic
##board
favor
russian
##xn
diuretic
asterixis
335
##rometry
implications
241
notdone
##axial
blanch
staying
prepared
8mg
obe
thy
(#
##osin
##isition
interrog
bowels
hypercap
levoquin
soap
oa
rf
##ardium
####
placing
conserv
deler
reorientation
multivitamins
clipping
rr30
##ventional
##aleal
paradoxical
mtg
che
dried
maneuvers
##romeg
amps
raf
hickman
folds
colchicine
hor
##iring
identify
bacitr
nsclc
adjustment
##ently
##omax
subq
ranges
invest
mix
immunocomprom
afso
gangrene
nid
dv
spasm
afb
55pm
2g
recieving
620
mrg
pursue
interest
irregularly
purposefully
choking
introduced
##unit
lightened
9am
reac
##ytics
##ann
911
chb
##oxins
##opa
herp
scanning
234
##liance
samples
plasma
intermedi
standpoint
caffiene
manager
##ison
100ml
mibi
##oration
299
coreg
essential
homogeneous
##elles
admits
clarify
doxycycline
##adh
spirometry
reassuring
tortu
opth
##eres
##obular
underg
##opin
relation
subdiaphragmatic
unste
bbo2
##ontine
flaring
660
cach
narrowed
caspofungin
tortuosity
bacitracin
rested
undergone
pes
##ained
##ovel
confirmation
alternatives
258
carotids
##ropri
##ople
nonc
##illo
grafts
defibrill
##cele
methylprednisolone
investig
hba1c
242
fontanelle
autoimmune
prochlor
droplet
tams
typical
510
rheumatic
unfort
sequence
dj
antrum
##ulosin
macrocy
c176
compliant
sanguinous
waff
##var
##ubstance
##perazine
##acol
subgaleal
bink
shovel
gradients
##ophy
mist
pleased
4u
enalapril
intram
persistant
stopping
##rad
##eness
##etil
greatest
division
augmentin
smv
dome
yellowish
##icted
nepro
asperg
##ngn
1830
pylori
urobilngn
prochlorperazine
hypoglycemic
ai
tamsulosin
259
itself
prongs
lie
vod
gastropathy
tur
risper
cane
stret
atraumatic
frus
bore
vesicles
niv
occult
gradual
emphysematous
immunocompromised
oett
orientated
##ptive
##eds
##fts
tunn
object
epith
impairment
ovale
talked
nephrotoxins
subtherapeutic
##fl
##iliac
gad
majority
unfortun
vigorously
dehisc
hemic
##va
articular
aox3
##romegaly
incidentally
equivocal
231
pcr
utis
subluxation
cho
diph
266
afterload
322
mesh
doubt
tbm
careg
lasting
##azosin
markers
##oughly
decon
transplanted
accurate
hld
accum
600cc
cw
irrigated
depak
auditory
orthostatic
tracks
425
spiking
dopplers
hyperintense
polysubstance
##ynes
840
aim
##taz
249
maint
benzo
fsbg
anastam
aside
strokes
diagonal
criticaid
weights
retaped
kayexalate
adap
050
rose
)).
cisatracurium
obliter
30ml
depakote
cros
1530
2cm
settled
yom
thumb
retin
osmol
arteriovenous
##ruption
##cur
##auce
//<
ileum
##iating
##================
##rolled
##anal
thoracics
strongly
262
teams
siadh
metol
documentation
aspergill
##iferol
##chf
particle
e24
enterobacter
cess
thirst
cerebrovascular
##epine
2mcg
##elvic
nu
forget
345
uri
benzod
freely
##hours
scop
pheresis
lobar
625
tetracy
tunnelled
##esin
dilator
exercises
263
facilitate
progressing
fb
conventional
asb
inflated
rou
glasses
dyspneic
##standing
afos
mesentery
dchf
pains
nbn
cyclospor
273
adls
granulation
inapp
##plasia
expectorate
fa
##04
9pm
dang
bearing
contractility
salt
##oscope
mural
meg
##genic
performance
enjoys
losartan
nurses
cycles
antifungal
##lec
foll
standby
278
300mg
smelling
tazo
calculi
##ception
benzodiaz
neutroph
reaches
bronchograms
session
twitching
thrills
pleuro
##eled
anis
hemoglobin
willing
djd
277
##orex
vomit
diminshed
ie
##bital
355
##yom
##oscop
cessation
##oft
rays
ugi
decondition
digested
believed
253
mirtaz
nam
forehead
mastectomy
idi
##ational
missed
viii
har
c1769
##amer
10cm
fontanelles
##yline
terminal
afterwards
##igned
metolazone
hat
##onc
spacing
bursts
269
novas
elements
dehiscence
conse
obtund
pe30
##robial
bruises
margins
epithelial
tah
cxray
hodgkin
grasps
##itating
palsy
fxn
supras
roux
630
meropenum
transmitral
pravastatin
steps
condom
dependence
maturation
clarification
256
##rhythm
coarct
eag
005
measurement
microcy
680
alcoholism
novasource
##reh
endoscopic
p1
orthopedics
##entorial
appy
periphery
ophthalmology
crest
infiltrated
guaifen
##ements
##enty
dermat
##position
x5
qod
pedestr
ammon
indices
yank
##itish
pedestrian
rectally
##odilat
glob
ebl
scab
waffle
flomax
##ilin
602
murmer
declining
localizing
t5
psoas
sufficient
whitish
hydropneumothorax
1330
365
hemodyn
compreh
placements
itch
##ucible
heroin
cavitary
cvvhdf
blunt
fon
##ological
localized
visualize
klon
nephroc
##aed
##athyroid
maze
decort
establish
biv
asbest
^^
calcane
288
integrillin
scout
960
reaccum
##orium
276
##ojejunostomy
##leak
indicates
mammary
adaptic
forms
tremulous
sedatives
coarctation
burning
refuses
motorcy
##osm
13cc
suffered
multipod
seminal
granuloma
cm2
difference
discussions
burr
##uq
##atically
##ocellular
c18
excretion
organs
saturating
11p
##arean
##estaff
385
sfa
##osities
planes
au
252
verbalized
bear
things
rhabdomy
##enge
housestaff
##ah
flushing
590
xanthales
lacunar
740
reinforced
smoke
optim
rar
xanthalesma
oun
personally
##uitary
residue
##stitution
ban
fluent
inappropri
sc20
##ilities
##idem
intially
school
flail
verified
angles
bum
##ync
misc
2am
hdl
dlu
eccym
pinpoint
pons
leuks
excrete
noct
cesarean
terms
airleak
clinician
##emoral
smokes
heavily
vtach
immobil
notice
251
254
synag
podiatry
valves
contracted
dram
involve
##gesia
diverticulum
pronat
+<
arrhythmias
nap
gpcs
75mcg
demin
faxed
thrive
maleate
##rot
choled
hernias
pronator
artifacts
fhp
pituitary
fonts
explaining
suv
breastfed
dvts
##odilators
.'
valvuloplasty
warming
intolerances
acquisition
laryng
leukocytes
##utical
1430
ppf
326
watery
287
helped
##igo
allo
##echoic
bulk
##5gms
##chct
regurgitant
dur
1000cc
##att
shell
pureed
aca
##aderm
261
waxing
unt
physicians
395
independ
spiriva
fluoxetine
delerium
##hem
centril
hfa
motorcycle
addl
emerged
atherosclerosis
spoken
8l
responses
synagis
sizes
intermit
tc02
petech
unfortunately
demineral
centrilobular
flexure
shot
##iss
pmicu
tonic
inotrop
##oring
glucan
1000mg
obtuse
exacerbated
avail
a1
sucral
7cc
retrograde
redemonstrated
##ls
revascular
sequelae
terminate
##olitis
components
adlib
ppp
##asth
rarely
orbit
##ovir
##ier
lavaged
obstipation
suppression
150ml
##ometh
esc
cyber
pumping
neuromuscular
pericardi
burden
magnetic
dluvc
passive
centrally
pauses
xr
##cta
disturb
irritation
##zing
sxing
dating
tapped
confluence
zolp
##rec
application
405
##week
fasciotomy
bumped
##ared
##orted
malposition
lido
amyloid
torsemide
perian
neurosurgical
decortication
.(
##aval
induction
arthral
zolpidem
##elying
q4hours
outputs
nephrocaps
exceeding
clonic
uncont
subcarinal
75th
313
cbi
ild
prevention
##sb
##ylate
trazadone
12mmhg
tubefeed
endar
sets
##ective
boost
foods
gut
570
sidelying
orog
cardioverted
slice
radioph
780
ascitic
acetabulum
##icer
elevate
297
doctors
elsewhere
unrel
sacro
hospitalizations
pariet
annuloplasty
##lottic
cyu
##but
lge
##erable
helically
recc
aggitation
encouraging
toxicology
coma
medicines
##iflu
ws
restaging
immunosuppression
transvenous
291
##iptyline
asymmetry
298
ammonia
nsurg
partly
initally
whose
sclerae
refed
cholecystostomy
jejunostomy
##grams
analgesia
inhibitors
286
indist
myasth
stabilization
##ilateral
syr
caudate
verify
475
mechanism
household
substernal
calcific
rectus
##alox
mapping
enlarging
screened
gnrs
conversant
perianal
[<
fistul
endorses
sevel
behind
##wk
dcd
hypocal
293
orogastric
283
intubat
bene
##seal
reasonable
training
indistinct
tailored
awakens
claud
hydroureter
ending
calcit
tooth
isolation
penis
##parents
visc
##esh
##ppd
lactation
20mcg
vagal
282
oss
25g
stenoses
pericardiocentesis
##fish
bringing
rm
infra
tubular
heat
properly
microorgan
##acial
gastrectomy
4lnc
participating
sensing
instrumentation
seas
hepatocellular
syrup
267
271
tamiflu
effectively
presync
sarcoidosis
countdown
tmp
grounds
guaifenesin
abdominial
retinopathy
vasopressors
##ectable
compressible
##clavicular
roughly
shellfish
##inter
speciation
sucralfate
shakes
caud
##onuclear
therm
wanting
claudication
pill
fsg
##v1
characterization
scapula
phototx
heplock
##erson
colonization
coursing
##iotic
banana
##ht
gun
jt
supra
thyromegaly
freeca
subtotal
hemispheres
unsteady
lasted
bolt
urin
kef
microorganisms
zoloft
defibrillator
pager
daytime
totally
imip
sux
longstanding
##parenting
tires
probal
hypoattenuating
quetia
analges
281
midclavicular
##xx
parotid
spinous
quetiapine
plasmaph
600mg
curv
carp
pool
tell
##aing
thinks
uc
parac
##esc
aggitated
develops
jer
tetracycline
careful
##enable
wts
losses
cuffed
sparing
##icone
seek
iso
pedicle
polymorph
herpes
##ensit
inhaled
lipid
deb
##chanteric
##ener
impaction
##iap
sisters
approval
shr
diov
264
dfa
##urnal
hypoechoic
sevelamer
##ectic
pleasure
persisted
approved
mortise
desire
integrilin
uns
assault
nipp
cryo
mirtazapine
nocturnal
prompting
##no
tension
diovan
radical
biopsies
lump
730
##acral
##oked
crt
luq
dash
method
gtube
greatly
interpret
sling
##yrs
varicosities
##terolateral
false
##ogast
cataracts
##leb
desaturated
basic
washing
cramping
292
infuse
2130
348
xanax
5u
tentorium
1mcg
##atus
645
cycled
318
legal
10l
phenobarbital
cholangiocarcinoma
ounce
lord
1250
##amax
hemiar
lyte
445
hila
415
readd
mcgs
lithium
##ruit
>*
274
cirrhotic
oment
rheumatoid
latch
##lv
option
roxic
760
515
anesthet
crp
thalam
/?
bronchodilators
##izine
327
psor
##valvular
diphen
polymorphonuclear
gfr
##insol
##x14
wiggle
fused
passage
patches
##onium
##atase
tegaderm
525
malle
prostatic
adnexa
##ovac
mammogram
nuclear
degeneration
lus
##afate
intraop
q8hrs
falx
anomal
hemolytic
303
aber
lyme
creams
antihypertensive
rotator
ferinsol
bilirub
spondylosis
seed
dashboard
nonobs
tls
dfddp
epilept
()
##ropr
##trained
igm
reevaluate
1resp
lsb
probalance
##cardias
hungry
nebulization
##ocyte
pas
hopefully
rop
##otopic
hopes
cigarettes
considerations
nts
patterns
surfaces
rpt
angulation
spokesp
tomm
endobronch
limitation
retropulsion
latex
lingular
myasthenia
3am
tk
prur
##ordinated
cyanotic
stronger
##asms
esr
producing
fus
gutter
##atories
emptying
)(~
threat
shin
immunology
##knife
porta
gem
##station
proteus
allog
##izem
##x12
microc
anuria
desensit
bite
610
##emporal
bigeminy
driver
strept
##hydramine
pontine
4hr
echocardiography
requests
12h
repet
carcin
cooperate
arthralgias
nard
latter
oxygenating
pku
spokesperson
ileal
pract
radiant
##clusive
believe
suprasellar
vertigo
cyberknife
rifamp
3cm
really
transvalvular
phosphatase
sarna
nitrate
wo
callus
inqu
tolerable
##logist
diphenhydramine
tapering
hair
rew
consp
dss
fish
gal
avb
>+]
2a
consistencies
gyn
entering
endobronchial
##assemia
compressions
phal
399
tense
##oken
paralytic
smx
greenish
hemovac
erosion
##iary
##ocutaneous
296
providernumber
centimeter
responsiveness
perior
rami
conduit
rigidity
niddm
fxs
jel
decreases
neglect
rifampin
holds
shoulders
constantly
serious
assists
beneath
apep
click
om2
neoblue
ez
acinet
psoriasis
ever
##ieves
retroper
670
ambu
participated
##apping
subm
emission
317
upward
laboratories
100x
unequ
sacroiliac
remark
stimulus
sheaths
##rosis
macular
##atz
spitting
rcc
mgt
bm32
reconstructed
allevyn
dysmorphic
cachectic
die
natrec
revascularization
transder
820
paralytics
processing
posterolateral
##istic
kefzol
spin
habits
tlcl
protrusion
wan
##oca
##oxyl
workstation
wine
puree
sotal
##yal
##ulsive
frame
bradycardias
natrecor
sotalol
hypere
ide
oxide
digital
sct
unrestrained
recording
prepare
cpp
ferritin
capped
324
thym
lusb
esophagogast
aged
atelectases
discussing
contribution
ankles
affected
exophy
lrg
challenge
sequela
7l
accent
importance
tof
coughs
##las
1130
bites
1030
308
333
uncontrolled
volv
338
fungemia
##94
rbcs
endarterectomy
conspicu
chg
simeth
##iapical
##udative
prescription
##occip
saturated
ketones
climb
710
sequential
##cef
quint
traver
rhabdomyolysis
arrythm
sulcal
mmmp
##com
##ensible
polych
people
arthroplasty
caloric
contraction
575
cancelled
##16
detox
##calciferol
##illof
acinetobacter
alternative
climbing
455
pace
apples
##inoid
monon
desired
690
manif
epogen
424
roxicet
rr40
triage
1unit
recovering
fev1
##pleural
##rexate
yelling
urs
tdi
gsw
##icable
consulting
##ronate
likel
adat
combined
coup
363
something
myocardium
##kcl
sylv
charted
noncomp
dialyzed
entr
mess
recommends
sulcus
##ympan
().
seeing
contrib
080
boot
deterioration
casts
mandibular
#*
infre
ureth
exudate
hydroxide
hypoattenuation
hyperinflated
##nsf
##ucle
obscuration
1h
overnite
pax
##abine
recanal
worst
transd
empty
rpe
##orption
##ergy
sxned
##25
mrv
##thorax
020
323
chronicity
vaso
wih
##omatosis
clotting
definitely
apeparing
920
##oderm
indometh
convert
##xin
diap
110cc
methot
transdermal
8cm
shth
jud
star
bandage
crystalloid
led
assumed
peep5
missing
clog
vary
##tib
##lofen
copy
fresh
ou
healthcare
thrombosed
peribronchial
exophytic
hur
800cc
circumc
regards
slp
ointments
##occipital
ancef
liqs
anbx
methotrexate
idiopathic
##ylene
dozing
hypertensives
##antine
mononitrate
motility
considerable
premed
carefully
##verbal
##ihood
endometrial
crow
##isted
appearances
sylvian
recruit
laparoscopic
cer
sest
##ators
##itted
detection
830
btw
paxil
unequal
intras
fiss
staging
25cm
debris
definitively
##amibi
width
resc
handling
patellar
blink
##oprost
cognitive
bee
hypoch
##uum
sestamibi
pleura
meal
tiot
g1
hh
myopathy
495
nonverbal
error
applesauce
flexed
##ropion
##odiol
##ries
acetyl
9cc
glycol
secs
##eine
hemo
likelihood
cust
cheek
cholecalciferol
amenable
465
940
aka
bad
ox2
jejunal
bnzodzpn
##ultured
consum
degrad
migrain
microcatheter
partner
perineum
##icc
examine
pnd10
pneumobilia
reapp
subpleural
328
120mg
transesophageal
1500cc
barbitrt
289
ivb
illicits
tomography
valsal
meld
adjustments
blankets
tracheobronchial
urobiln
##utive
stented
rendering
##seat
guia
repaired
3u
extrems
verbally
presyncope
402
##ifiers
dk
##bypass
coun
##for
autodiuresing
##izer
temporarily
##ichia
volvulus
impairments
resonance
pylorus
valsalva
lgib
250mg
caut
##aflet
010
carafate
2hr
phoned
vdg
interpolar
upst
pps
loosening
abutting
hemicolectomy
##uing
desensitization
025
anastamosis
##itect
284
recogn
880
imping
maxillof
##eningeal
architect
trf
modified
##vi
##apsular
ursodiol
zoster
shocked
addic
332
picking
##lc
860
klonopin
decide
pivot
settle
cabgx3
migraines
##ads
ren
386
clonus
stenotic
hydrocodone
boyfriend
groins
terminated
accumulation
fes
dead
fractured
accepted
##ists
symm
02s
160cc
##aste
##n1
pox
gs
##oxan
grown
309
certainly
hm
##acious
silk
##elines
hyaline
bud
##orone
longitud
cul
30min
ceph
conray
decann
tommor
unfol
##rochanteric
##etics
decr
1am
cautious
indent
longitudinal
indomethacin
happy
!!
nf
proph
fluc
uptitr
##ems
##yel
agreement
##block
appendic
piggy
##iel
fdgs
supports
nml
allows
lpm
##omatic
##ighter
##ervice
##otassemia
294
static
311
anesthes
maxillofacial
scc
tiotropium
7cm
bsx4
sml
carseat
cldy
ivab
419
tympan
306
aorto
insult
fulmin
antecubital
trialed
##amedullary
edges
1mm
assay
surgically
downgoing
contained
shocks
ostial
790
rtxns
bell
cc7
cephalospor
simil
periorbital
700cc
##encephal
intraven
piece
galact
resus
##omer
##enolate
cong
30mcg
##exp
occur
##quently
tagged
##chond
invasion
##atectomy
lived
367
distribut
disruption
speed
obtunded
contam
ccs
>/=
evidenced
supraclinoid
aroused
mycoph
shifted
biceps
ultrason
chains
antibodies
##osus
suddenly
pboots
vodka
gli
##ortal
##ivir
uncoordinated
localizes
ventriculomegaly
>"
mobilize
nasally
unwitnessed
ventilate
312
(>=
adnexal
thermodil
##ret
rhoncherous
##umeral
repeatedly
applicable
amplatz
40ml
c1894
vacuum
hyperglycemic
pfts
drainable
posted
346
3mcg
passy
##ohumeral
##rhythmia
retroperitoneum
6mm
5f
930
770
dehydrated
neuron
##lished
chan
dilutional
extraaxial
traction
3p
##obia
kgs
351
creatine
guidelines
spectral
intraservice
))
nine
reble
pleurod
##osing
beers
inappropriate
constric
discitis
poik
750mg
goiter
defib
multipodus
transit
040
bicuspid
##omot
collected
yof
##osum
soak
bsc
##hydration
bumex
##laser
mcq
extremites
calvar
349
amik
mycophenolate
infiltrative
##ulm
hemmor
nonlaser
pharynx
identifiers
glen
simethicone
prophylactic
bronchospasm
perineal
acetylcyst
levoxyl
319
amiodorone
bileaflet
kit
baclofen
eob
lscta
485
ultraf
digits
##char
675
##si
h1
fan
##eling
appliance
##amen
10mcg
##yalgia
##ij
continually
possibilities
bags
hida
##more
200ml
pect
adult
302
megacol
biapical
avidity
##reson
ggt
precaution
objects
fulminant
##5gm
apr
discover
unrelated
desatted
flexible
alertness
pleurodesis
hyperreson
3fen
hoh
neutrophils
##yof
2230
##vanta
broke
corpus
holos
galactoman
g2
tg
forgetful
kink
##ecal
##tery
##oform
granulomatous
ig
##elate
scores
confirming
pleth
dm1
azyg
vfib
aunt
##met
washed
histor
ambisome
##olus
incar
digit
##x5
##sued
squeezing
hyperresonant
##orad
babies
megacolon
##enytoin
##action
fibular
survanta
##alb
thalamus
quinton
307
transaminases
reaccumulation
enhances
334
##osine
cauter
##iro
lowered
0430
diverting
cardizem
dipl
cup
23cm
retain
alph
dentures
thermodilution
deployed
diaphragms
##vedp
parieto
crush
shifts
destructive
tobra
understood
relationsh
uv
twins
recruitment
401
344
##umerable
##urea
amikacin
burn
watching
intrathecal
##ochol
maximize
leptom
beds
vertical
505
0530
piggyback
shape
##ulating
##coag
annulus
trap
swallows
tenacious
plex
##curonium
xer
melanotic
periportal
anc
flac
fc
paramed
329
opacifications
brothers
##gmon
##x16
established
epileptiform
##18
paperwork
##oscopically
rust
spasms
young
subcutaneously
remin
fibroids
=<
356
anginal
expectorated
resected
readings
diverticular
##uod
##thyroid
ulcerations
roll
asbestos
incarcer
d12
304
030
dialys
innumerable
flaccid
flexi
anorex
725
m1
bibasal
incidence
manipulation
336
015
contamination
##otemporal
ardsnet
frustrated
anca
meper
coars
353
##ulla
brownish
petechia
tiring
dept
barely
##imens
intoxicated
316
overlapping
rails
dislod
alternate
bupropion
arachnoid
readdress
clearer
hypertrophic
quads
utilizing
paracolic
gastrojejunostomy
crash
thoraco
bulging
+=
##aute
meperidine
eventual
correlated
##cms
corresponds
##arpal
60ml
0930
##onex
##orbic
paroxetine
prompted
canula
extrac
lispro
infrahilar
##avp
retard
339
417
bupiv
bes
lacerations
vertebrae
discovered
believes
similac
origins
til
##rating
alternatively
ultrafiltr
downtr
##atch
##db
laying
cryptogenic
anesthetized
silhouettes
computer
##ght
happened
performace
##idge
875
##agger
aao
saying
fold
8cm2
##ades
48hrs
pulsus
ascorbic
nervous
tkr
valpro
##tibc
caltibc
spic
337
projections
stretcher
ddavp
appendicitis
incont
maybe
subcapsular
neutral
glenohumeral
bus
desating
temperatures
##alc
psa
palpated
antimic
paco2
simp
##loyment
321
betamethasone
535
ht
warmed
ptd
broadly
phlegmon
communications
carpal
314
amitr
dyst
consented
nasopharynx
reli
##@@@@
##sec
##otyp
##place
feelings
coagulase
elix
amphet
##aver
nippv
453
5hrs
hypercoag
pulseless
binki
hyperactive
##iatrist
npnote
safely
valg
couns
ticu
##urant
crowding
predicted
mentation
(%
uric
aspects
interaction
##ontal
questioning
imi
apc
##soh
810
denying
precipitant
ebv
980
bathing
nodularity
plasmapheresis
##icus
22cm
heights
conservative
##psy
359
366
cyclosporine
vpaced
060
streaky
hyperp
channel
dependant
example
2fen
sections
##urgical
pept
quin
scv
##oclavicular
rage
anorexia
nac
ache
acetylcysteine
##0cc
amn
book
eosinophilia
(%)
##uity
bridging
hemol
intramedullary
extraluminal
2h
mof
8hrs
expiration
484
presumptive
##sin
15l
fill
##axia
vecuronium
gum
hifi
##eron
abrupt
knob
##kcals
convin
fleet
malpositioned
##nephrine
auton
benzodiazep
outer
intramural
discol
splinting
tch
remarks
jr
schist
counter
090
selectively
4cm
##iitis
hemoperitoneum
venti
##outs
mol
obscures
foam
antimicrobial
heplocked
##ties
h1n1
##illar
binder
343
nash
##alexin
neoplastic
pe28
sxning
obscuring
rob
ectop
357
hemi
neurogenic
extensively
malacia
imipenem
##butr
usoh
##asteride
neurologist
pseudomon
shor
haem
univers
preload
advil
thrash
zyg
20ml
prevascular
warmth
tlso
cytoxan
##ival
331
##opyr
tax
intrapelvic
rein
545
respr
progr
##iclovir
##openic
midnoc
##lin
text
synephrine
calculus
bagged
075
contributed
##butrin
transaortic
##enth
cephalexin
triplet
##gfr
377
>(
verbalize
gastroenterology
retardation
niece
polyeth
nuero
clogged
discon
firing
wit
betab
##amps
jx
galactomann
lowest
##anx
0000
homeless
##ipped
eyel
xopen
acrom
341
estgfr
cather
##auma
transplantation
bacteri
wdwn
pau
circumcision
tarry
contd
repog
collision
bronchomalacia
910
peptic
epilepsy
cephalosporins
##kq
inplace
loa
centimeters
rooting
q3hrs
gbm
multilob
?"
555
decannulation
mofetil
autonomic
thrombotic
derived
hbv
##rophys
caps
9cm2
repleting
uni
dosages
lumpectomy
polyethylene
nahco3
5x
##usted
wiht
stead
drank
zinc
laser
palpate
hepaticojejunostomy
reins
engorged
subtract
rsc
hicc
##yed
finasteride
expressive
##adyne
replacements
betablock
encephalopathic
escalation
unilateral
tranfer
persantine
appr
342
electron
overr
electrophys
gase
lady
pushing
correlates
stri
llsb
3lnc
nephew
outlet
managment
handed
thinning
wand
mvo2
rating
##expl
enterocutaneous
rhabdo
aquac
comprehension
wanes
##chondral
leptomeningeal
conditions
565
ups
choledochol
358
uptitrate
bnzodzp
ideation
hyperox
pneumoniae
infarctions
890
stiffness
##osmol
##itux
wellbutrin
tearful
exhal
viv
##ians
##ryl
girths
tubefeeds
cecal
##ange
mut
362
triglycerides
##14
d5ns
cspine
##anciclovir
pneumat
transt
correlating
cardiopulm
occassionally
phalanx
anom
signif
desated
0830
##ugin
dfdkq
pica
accel
q48
anomalies
##riol
hcap
coated
354
conspicuous
ball
widow
hypoph
fascia
activated
24cm
sci
nucle
##lucid
latched
guiaic
periodically
ddd
contaminant
holosystolic
2resp
4g
suppl
discontinuation
374
directions
##osmolality
ej
##wks
##agic
softener
595
msk
##phn
fibrom
qtt
verbalizing
585
desatting
##ystole
ses
disability
dear
intest
cleanser
xopenex
##zac
mgso4
rusb
vicu
older
odor
intert
identity
triam
##ordil
compromised
horiz
8h
asystolic
slee
asymmetr
wtih
equip
x24
statlock
remeron
383
cranioc
.?
##rolate
plexus
spiculated
isordil
559
pyr
relationship
gaseous
##uana
clo
umbilicus
benzodiazepines
discoid
marij
fibrotic
paraplegia
##cot
prozac
doboff
kick
calcitriol
raa
heads
##aceutical
mediastin
hang
388
scapular
likley
reassured
hyposmolality
cml
hypervent
##rong
hydrated
##opia
deteriorated
utilized
##rophied
##orx
thrill
granulomas
##72
stere
instilled
demineralization
steadily
buff
cow
provides
waterseal
unfolded
cous
fear
xeroform
##orol
0630
pnx
ferritn
recom
quantified
hemmorh
choledocholithiasis
aerugin
waxes
dimple
transformation
q8hr
audi
ues
portug
hemor
ain
placem
##apro
##11
initiating
347
horizontal
rads
chance
backside
shorter
switching
fasting
ryth
2330
retracted
hydroxy
aeruginosa
adenosine
analgesics
##emask
slices
muscular
bare
intus
punctured
mature
870
subsided
aggr
bact
turp
metac
diminish
zero
##alax
asystole
methicillin
staple
reinsert
station
0cc
30g
arrive
completing
expressing
##ibe
disorders
presep
guardian
vasopressor
quantity
triphasic
diskus
box
##etric
##city
615
straining
varying
##fib
migraine
378
typically
petrous
inverted
awakening
rheumatology
marijuana
##ilated
eschar
labeled
species
facemask
368
##mics
##vest
security
ductus
373
chemistr
percoce
##plastic
##mar
aborted
lister
fosamax
overriding
leaks
lax
##13
thyroidectomy
callosum
394
buck
reconsult
fosph
venod
##occlusive
catheterized
produce
pulmonology
reserve
tricyclic
unload
##odox
##ioned
chemistries
sponge
exposed
holiday
393
##idex
##o4
acd
dislocations
chemical
hepatis
372
acetmn
breasts
awakened
acetmnphn
##ctic
superinf
mbp
lamina
##cement
cabgx4
aspergillus
fit
trim
##azepine
swabs
fluctuation
605
825
##armaceutical
remn
nondi
radiopharmaceutical
season
2p
copies
equipment
##orced
paraf
uncooperative
eccymotic
apartment
belong
psychiatrist
ix
etom
brov
police
swing
775
elixir
fior
delt
breathsounds
caregivers
ease
p2
calchct
adjusting
##lix
reticular
confirms
deconditioning
"<
##uem
##~~
retx
germ
hapto
ritux
##iling
musculature
interfer
neigh
##00cc
probnp
haptoglobin
d2
timolol
restraint
pnding
##yrid
pneumonic
identification
trapez
created
hemispheric
dar
fvc
pseudomonal
##opyrrolate
##ypher
hemidia
miralax
neighb
drawing
psychosis
##itz
organism
##x18
12hrs
376
thrombo
aches
##oss
15g
##ectal
magnet
sucrose
'''
luminal
ccc
manifest
recieve
inside
ventilating
dermatology
cypher
##lap
tou
twenty
parts
200mcg
targeted
broncho
tre
990
tonoc
petechiae
glycopyrrolate
##ometer
##agnostic
cavities
reapplied
##land
##ardiac
pns
lymphang
fluoroscopically
</
667
subchondral
lymphocytes
0130
nsaid
~<
##rat
computed
td
urgently
localize
fosphenytoin
eros
##estril
##cemia
std
optic
****
250ml
schizo
normocytic
operators
meant
intravascularly
zestril
accounting
stereot
nostr
ras
asap
myx
scds
lh
##opos
official
387
helps
ox1
transparent
autom
##azolamide
nondys
disco
371
correctly
broviac
blbs
smr
erosions
rests
exit
489
406
364
381
sustain
nondiagnostic
4units
##athyroidism
transtentorial
##romatosis
everything
ketorol
58am
apart
maalox
propran
arriving
##obal
dietary
intussus
nonocclusive
kerlix
369
##know
pentobarb
paucity
otc
multivessel
fails
970
marker
thromboph
sump
##integ
397
hyperv
coom
galactomannan
itp
635
odont
ketorolac
evaluating
preservation
acknow
398
fid
##aginal
foramina
exagger
represented
bill
ended
starts
##nii
triglyc
##cpap
taa
aps
nodded
392
historian
wrong
caution
shunting
draing
perispl
montior
rhon
##odys
disinteg
expanding
affecting
##otemia
minim
triadyne
21cm
##blocker
alpha
##5min
nn
exlap
408
150mcg
intermediate
tracheoplasty
intussusception
##ais
posts
##otroph
085
distortion
yel
biom
propranolol
perisplenic
extrinsic
nephrologist
##ki
)<
##idom
hyperpar
assisting
cellular
staining
##iti
##ulence
##mnp
nov
##oster
poster
nauseous
accurately
pub
osmolal
buffered
bending
379
441
dwi
##ocobal
meningeal
intermedius
nitrof
powders
##ositis
nhl
migration
angry
write
tes
##acal
degraded
futher
dramatically
thrashing
nondysmorphic
433
##rew
cyanocobal
magnum
acidemia
jtube
##unc
nonin
seroma
biomark
##quence
redire
upgoing
685
debrided
kayexelate
query
07am
disintegrating
##andibular
squeezes
qflow
745
golyt
hyperthyroid
electrophysiology
intertrochanteric
##pose
feas
750cc
ase
azotemia
414
acetazolamide
##ominate
passe
cefp
infero
##nish
##rits
##odef
priv
fluctu
tuberc
immunodef
recovers
##mc
384
extrap
fluctuating
prograf
unloading
apap
655
sometime
optimized
laryngoscope
##achs
##alemic
hyperinflation
aquacel
40mcg
involutional
##breather
arthropathy
patella
silent
##itine
manner
intimal
cadaver
stabl
wears
##ovirus
cyanocobalamin
1uprbc
##inyl
reminder
##chanter
amnt
intervene
gravida
utilize
blanching
##minutes
impending
sof
08am
ms04
pmd
409
01am
acetmnp
leukopenia
paraph
35g
gener
occasion
##itivity
urinate
picked
obeys
vivonex
536
biphasic
##ionate
visap
myelodys
retrol
collimation
visapaque
consolidative
aortob
##chil
preparing
100bpm
a2
prebypass
profile
jump
apaced
icps
phlebotomy
070
437
perioperative
##lic
broadened
fasciitis
dissem
hemos
ultrasounds
preclu
xrays
wiggles
parafalcine
##occ
terazosin
occiput
?)
##lement
trochanter
relaxed
##rix
evalaute
##shot
bent
endocrin
persistence
(?#
sounding
wsclip
apne
calhco3
bruise
hou
##oping
##ocele
arctic
tannish
##ielding
breech
##enhanced
recanalization
oval
mgm
taked
risperidone
975
postsurgical
amin
amitriptyline
transhepatic
cleft
upto
malleolus
corn
yielding
rfa
dipyrid
multilobar
##istics
suboccipital
srr
feso4
ultrasonographic
vite
adenoca
spirits
nonrebreather
interrogated
##amole
panic
ileo
tommorrow
##angi
deny
incre
pleure
##itabine
lif
roots
##elol
lobulated
managing
borders
##upogen
clustered
dipyridamole
##choic
grandparents
arrives
rtc
student
665
trigem
hypertrophied
roof
hematocrits
penile
352
predominant
moro
prostatectomy
transitioning
stepdown
##mil
02am
gagging
tonsillar
##een
transj
fissures
hart
someone
retrolisthesis
cystoscopy
##odoxime
nicely
superinfection
##ograft
repetition
vallec
396
elim
gold
aphasic
##emas
##affective
intense
04am
incarcerated
repogle
cutaneous
coughed
##coal
bullous
acalc
416
lin
obstructed
##iacin
aseptic
nex
circumsc
##x20
dat
hounsf
bronchosp
extensor
gyne
tonite
correspond
twitches
ultrafiltration
tet
escher
selected
intuba
bruised
fragile
escherichia
nice
##ups
mys
helping
granular
56am
##umen
venodynes
scl
361
pancultured
sciatic
stenotroph
annually
lucencies
niacin
sensed
ketamine
restrictions
##enhancing
##sol
##ousable
compensation
##with
spur
elic
pnuem
etomidate
bubb
##inished
##urantoin
odontoid
woken
ovary
hemolyzed
sc24
18am
relay
lumb
protective
palatal
hypoint
omental
averaging
dtrs
22am
57am
85cc
hounsfield
##zen
stit
condyle
impacted
remnant
10u
426
reminded
takedown
infxn
induration
><
tu
cousin
fibrino
schizoaffective
performing
parasternal
circumscribed
cant
03am
boop
gastroenteritis
diplopia
belongings
contribute
noninvas
occasions
18pm
aspirating
consistantly
##orphic
centrum
excited
##oam
commenced
sheets
sesha
propionate
190s
dynes
##eding
06am
48am
vue
##iotomies
uptitrated
nitrofurantoin
grandchil
neupogen
##undum
constip
=/
noting
mex
52am
uncovertebral
sella
##alent
npcpap
downs
427
matrix
charcoal
10g
vaseline
zygomatic
peritoneum
headed
##ukast
pri
##ratia
##axine
morbidly
depleted
reticul
fibromyalgia
rythym
##ati
serology
##otten
serratia
sarcoma
095
qdaily
apgar
reinforce
##igm
dysrhythmia
##olin
protamine
characteristics
biomarkers
p0
intubations
communicates
mos
413
ille
hyperparathyroidism
abnormally
thrombocytopen
houseoff
hemidiaphragms
cefpodoxime
cm5
naso
dimensional
mul
0330
##osacral
opin
nauseated
houseofficer
4mcg
##uting
389
59am
438
neither
##endymal
charcot
ictal
anemic
immunodeficiency
mth
boundries
bso
personality
paraesophageal
tacro
7th
sigmoidoscopy
##zaar
caffine
concentration
4dev
loper
yield
episod
surgeons
##mission
##ographically
##astoid
hypers
betadine
secundum
hallu
fungus
rendered
##eses
##iline
downtrending
anomaly
##uvastatin
nonbil
avoiding
catherization
slough
alkalotic
photorx
rosuvastatin
cadaveric
disseminated
##esias
##odense
##zine
divorced
##copy
adn
resuming
dipped
tries
pvl
precipitated
*****
boun
##laf
##etin
traversing
mum
frx
flav
metacarpal
##0gms
intraoperatively
##embolic
925
meantime
spouse
scd
pointing
polypectomy
pulmonologist
malfunction
gunshot
412
attacks
50g
relieve
dapto
mineralization
innominate
0cm2
frozen
428
pfr
diastasis
venip
##iop
tracings
418
tesla
predominance
accentuated
##sternal
serot
3g
vc
diseased
705
##iosis
alive
frontotemporal
##lebitis
nonbilious
gotten
##ares
53am
sxd
remission
occured
gangrenous
##hemorrh
16am
hence
##bd
14am
temporoparietal
venlaf
1te
plcm
sessions
fistulogram
695
excoriation
maneuver
40g
contaminated
##lastic
aligned
19am
##igmoid
actual
1ppd
##exor
09am
735
unenhanced
differentiated
specimens
rifaxamin
trapping
##lucidum
nest
perin
ulna
continuation
eps
hallucin
##ulosis
intracardiac
audiology
miscell
vitamins
azygos
pans
##zil
391
anticoagul
uprbc
hartman
interrogation
nexium
##ilis
454
hemiplegia
uniform
mmp
harvest
tras
cowork
##alveolar
alpr
##ocle
##opsy
supplemented
feasible
hydralizine
lumbosacral
effexor
remians
osms
montel
won
involves
proct
382
inotropic
'.
rotating
alprazolam
44am
whom
##roscopic
walks
lucent
relates
##weave
romi
decel
acromi
vd
supposed
design
pellucidum
phenomen
nasopharyngeal
hud
wfl
palmar
pth
##istered
12n
15cm
407
sternocle
kphos
hyge
conducted
repeating
periop
hypernatremic
floors
crestor
montelukast
4o
ale
lamic
mail
sadd
optho
unspec
bov
13am
##ophobia
purposes
thrombocytopeni
sternocleidom
##olamine
446
calcaneus
heparinized
436
percocets
drying
locomot
surv
golytely
6u
locomotion
##secs
deflated
sor
attributable
pathological
proceeded
impingement
##obil
mucoid
grey
curvature
fdp
421
%/<
moisture
##yd
nonobstruct
opinion
nuch
agressive
heterogeneously
gelweave
translator
unwell
venlafaxine
##sr
##udine
hypotonic
54am
nitrogen
amniotic
grandchildren
2gms
blast
intermittant
60meq
stren
questioned
sores
15mcg
pend
##luct
equivalent
hygeine
404
sixth
##ulopathy
overwh
oxybut
orthotopic
viscous
famil
17am
1teens
bd
reexp
785
##ioology
##oplasma
upstro
wrists
childh
anesthesioology
2m
##ineous
##iw
cuts
dislodged
##irt
sc30
eagerly
thrombophlebitis
huddle
##itious
serotonin
ivda
429
precarinal
childhood
pneumocyst
readiness
33am
apple
escape
403
incub
wished
##daughter
##tral
sedative
abnl
pockets
assessing
calmed
32am
vols
ruling
24am
elbows
paravertebral
bronchiolitis
ampho
hydrothorax
pudding
germinal
plcmt
423
447
##endronate
715
cholestasis
phenomenon
##ques
overwhel
q72
##osigmoid
0230
dht
dof
echym
ncp
##lant
##come
redemonstration
reluct
dced
calmer
iga
coombs
organized
immobilizer
colum
educated
responsible
lamictal
##itn
respal
##ifer
beef
nostril
tinge
##iomas
##ey
##aught
rusty
ofm
tea
duvc
ethmoidal
dsticks
cage
cnii
##``
overhydration
##ipid
thirsty
loperamide
conditioning
rac
cook
^'
755
runoff
##sorb
##agen
deviated
deflection
angiographically
q15min
strictures
##rett
##umpe
cozaar
orthopaed
sluggishly
separation
##milk
pneumocystis
##ura
viol
disturbance
nuchal
##list
27am
agonal
765
autopsy
##cectomy
alot
gains
=================
kumpe
055
448
alendronate
457
practition
consumption
profuse
inconsist
hk
##gic
##astoma
spurring
##ibly
intro
widowed
bsk
##iods
##hydrate
content
va
aberrant
accelerated
providers
fift
##raw
hoarse
hyperpotassemia
##ulture
hypoplastic
synthetic
hypop
failing
medrol
settling
persp
478
loculation
breastmilk
mens
meets
microangi
macrocyt
.+
radials
ezet
zetia
##lly
##icept
ampullary
##hip
##clovir
##astal
blurring
4x
ques
begining
##uding
occurs
paci
795
ppv
##ya
##aria
##anoprost
501
##osaic
touched
dialysate
0030
naming
noninvasive
perirect
cystectomy
acknowled
postponed
ataxia
metabol
##roscopy
transduced
practitioner
##orin
halo
prefers
16pm
26am
cxrs
lbp
myelogenous
granddaughter
shifting
411
poe
431
hemody
38am
volumetric
similarly
latanoprost
retrac
prophy
47am
message
thoracoabdominal
inches
%(
deal
43am
embo
##articular
23am
homecare
965
stenotrophomonas
fbs
458
422
nephrost
urethral
genetics
fight
artifactual
accompanying
couplets
ea
compressing
force
todays
##aware
##enhancement
sternocleidomastoid
mosaic
insensible
28am
##stituted
perirectal
prism
dysf
dysplasia
biatrial
implantation
scopolamine
apneas
mtr
persisting
accuracy
pruritis
##uese
##ceph
##ophage
44pm
triglyceride
stereotactic
vvi
organizing
3a
##ensitive
machin
##tions
risbi
ske
##conds
multiph
##coastal
##spinal
vallecula
enters
decompensates
confron
##uoden
eves
transferring
##iotics
ascities
39am
ecoli
kilogram
streptococcus
grip
interview
##ugr
##bilical
phener
emg
bwt
homogeneously
paranoid
respalor
glucophage
multidisciplinary
obliteration
scabbed
catch
shake
##p0
discer
flows
##ardians
442
##ny
glucometer
doxazosin
mtx
subglottic
conservatively
simply
##odular
refuse
cranioplasty
iugr
fallen
indistinctness
plates
blurred
produced
doph
dysk
hgba1c
stays
overlie
##albumin
untreated
##my
##gor
36am
mouths
crea
hypercoagul
aricept
cerebrospinal
saddle
ezetim
unaware
throught
x6
atov
##optic
locations
arteriosus
watershed
tympanic
aj
ambulates
sober
appreciably
aortobif
##onide
14pm
459
hd2
##mls
hiccups
##can
34am
advice
443
jello
3o
propfol
432
personal
viremia
witness
preference
2o
excl
barrett
prune
arise
ulcerated
462
hyperthyroidism
ezetimibe
guardians
48pm
##vs
reducible
845
0cm
##ulair
493
scanner
developmentally
peptamen
31am
48hr
unemp
lactates
mildy
phases
shield
hypocalcemia
venipuncture
hitting
##usal
##theless
compressed
cauc
cannulation
3b
defec
bronchovascular
21am
pause
##elve
intrabdominal
embolized
bagging
hartmann
unexpl
spep
46am
intestine
##itative
90th
enzyme
automated
##acare
pa02
461
sxs
deconditioned
convincing
conti
model
##ococci
##deg
##amily
stigm
systol
21pm
cc6
aide
865
vacc
disturbances
fp
enemas
37am
hemiarth
antimicrobials
hu
dophoff
42pm
reinforcement
unspecified
##cals
##enosis
transmitted
045
subp
lordosis
stigmata
sta
58pm
facies
electrodes
02sat
acalculous
twelve
lvedp
ptosis
cefot
##prot
cin
nkg
bouts
recre
pmn
outline
57pm
51am
submandibular
unexplained
yell
solu
6hr
52pm
singulair
815
diaphysis
3000
acuity
##aky
##afin
glomer
employed
calcaneal
sider
reps
occass
accid
considerably
59pm
jerking
phenergan
dcc
stuff
42am
##ulmonic
468
trapezius
deminished
holes
flud
displays
frail
45min
28pm
axially
redressed
redraw
##tex
subject
517
babins
##father
blun
855
##oplast
determ
establishing
cod
moment
ossification
beam
ligamentum
discoloration
photophobia
naprox
##osphat
subtraction
hanging
guardianship
gums
confrontation
jit
contral
##brain
ampulla
hodgkins
##imab
sc26
reconstitution
acromioclavicular
##avist
ccb
image004
arrythmia
##ocom
calvarium
##pling
##beat
hemiarch
lymphangitic
##dal
29am
lent
institution
brush
infil
4000
stabilize
pushed
uncle
hyponatremic
candid
women
##h20
905
asymmetrical
perinatal
beefy
toli
tends
recess
grands
propaf
duodenitis
##atentorial
##aken
svi
pneumonias
##ointestinal
gastrogr
corpectomy
independant
esophagogastrectomy
myself
##enst
breathes
dependently
tuberculosis
dccv
contralateral
##aj
midbrain
rssi
btwn
reminders
bulky
retrie
supplies
easier
trimmed
##pher
underne
cortsol
coworker
##anded
##ogens
exts
467
toliet
tums
unusually
listeria
indirect
434
caret
firmly
reccs
##obiliary
bblocker
hund
indentation
##quot
useful
rxn
pleurex
##burn
##ithromycin
##ige
hydrocele
repos
##orbid
gadavist
crossed
underneath
detect
playing
pacifer
seizing
ging
##wb
concom
conversing
liberal
bronchoalveolar
hemmorhage
38pm
##estion
463
creamy
##inely
##ipin
monoph
helmet
discontinuing
feeder
nasointestinal
blocked
##prn
worried
08pm
bldy
awaken
dstik
##ivering
diapers
hemiarthroplasty
tbi
##vac
transfusing
distributive
hundred
##urpose
cramps
diminutive
34pm
enfacare
##embol
lordotic
blunted
523
epigas
neutra
naproxen
##xr
chn
##lty
replacing
rhonchorus
cauda
*<
testicular
fascic
spacer
door
lamotr
beer
checklist
pips
proxim
45g
absorption
41am
nosocom
caucas
recreational
als
algor
##ervical
insufficient
incubator
phasic
retinal
##enger
designated
omed
75ml
900cc
ldlcalc
priest
hav
radiographically
eosinophils
lamotrig
pursued
##omedial
choice
##orne
consol
subj
ham
cf
grave
machinery
ttn
12mg
seventh
##xp
##inating
resched
urination
lamotrigine
##emics
##berg
spondylol
##atly
##achment
choroid
surroundings
coarsened
##mill
dialy
##oblastoma
tma
osteolytic
polic
flut
22pm
10peep
##esthesia
portuguese
##19
readj
##fused
closing
association
heterogenous
exaggerated
host
##ardia
scaph
avg
473
##balta
globes
episodic
algorith
##ostatin
electr
1liter
cot
hasn
##ynin
routinely
blanchable
nosocomial
mvmt
thall
transjugular
##apular
cym
lighten
nadir
myelodysplastic
determination
hemoc
##osteal
complic
restenosis
487
##b12
preoperatively
##afil
errors
assesment
pneumatized
##ading
##month
##cic
19pm
tvs
survey
2uprbc
fond
##entional
##phen
17pm
476
risperdal
4f
chond
dramatic
eia
23pm
avulsion
mthdone
advent
neuromed
5ps
##ancyclovir
scoped
transudative
pathogens
dyskinetic
caucasian
5o
types
477
begins
hypochrom
hyperoxia
cymbalta
icd9
oxybutynin
##erone
##yloric
dilitation
depth
nephrotoxic
cefotax
recal
pancreatectomy
monophasic
nrs
officer
redirect
deliver
##ordination
nortr
##lucan
shrunk
ae
##osal
comorbid
noncalc
sprays
hypocaloric
pubis
cms
##clin
asks
normother
##inex
49pm
flattened
conveyed
4hours
sending
couldn
bend
underp
13pm
eoms
heartburn
43pm
readily
##weeks
noncalcified
lose
##anth
conus
hyperplasia
colorectal
scanned
pod1
fasciotomies
##ergic
##agel
universal
##atro
439
945
parkinsons
unemployed
feces
tvr
cov
sj
microcyt
nitrop
fum
resent
##apenem
umbi
pe32
444
platlets
pectoral
impressions
reviewing
hunger
fex
femor
migrated
fills
exudative
techniques
profund
skelet
grandson
##bale
835
24hours
availability
extracranial
nite
hepatoma
spondylolisthesis
47pm
elected
silden
paste
glut
atlant
afp
distressed
mumb
shivering
spite
46pm
colloid
125mcg
plmt
recurred
pej
bubbles
calculations
hga1c
passenger
rhonci
constipated
gpr
mics
ooph
##uab
##jq
##itve
533
7f
signf
sligh
492
dn
##ilinear
7mg
##wc
##olan
##etilide
shrunken
3f
glycerin
##arter
commens
##x10
lymphoid
skeleton
compet
##earing
thrombolysis
grandfather
pharmac
tracts
pediatrics
fasciculations
curr
jk
449
arrangements
hyg
935
aprv
37pm
pulls
reluctant
##iley
32pm
456
49am
watched
rhy
opiate
hsq
relayed
speaker
mycobacter
cos
sou
##max
comf
ectatic
friable
##oy
tris
##aphic
thing
noise
##aceous
3secs
gelf
axonal
defibrillation
curvilinear
5ml
avascular
488
glenoid
termination
meaning
visceral
valganciclovir
518
embolectomy
thinking
molding
amni
02pm
occurring
jps
##aquone
fiance
reflective
proximity
cam
mcc
##ai
##raft
56pm
itchy
$$
##lycemics
snoring
hemodynimic
fussy
periv
cresc
parathyroid
controlling
885
architecture
babinski
##web
acom
thrombocytosis
53pm
##arby
arteriography
kangarooed
backup
accomm
autolog
tegret
budding
hall
##ernal
recommending
separated
blindness
##otype
2hours
hes
2liters
nearby
approaching
42cc
cycling
gamm
prometh
irregularities
##uvant
##athic
equina
hyperintensities
(?#).
6th
g3
##arate
deaf
>..
gastrog
##ming
diureses
479
tegretol
cartil
imbal
54pm
ppn
noncompliance
stock
##ighted
##lobular
##ipril
##istin
daycare
mitt
unass
499
electronically
cvps
mottling
07pm
955
apt
##0gm
pretracheal
80ml
crohns
anisocyt
bronchospastic
##fs
##enum
805
nutram
vibr
carry
29pm
nitropr
urinating
##ein
##bin
resed
antis
depos
toller
483
anticoagulate
##tpa
sleeves
gelfoam
asess
##illes
601
nitroprus
anz
##otoxic
rectosigmoid
teary
tightened
promethazine
20mmhg
corner
vitb12
stabilizes
clarithromycin
flavum
reexpansion
accommod
challeng
epoetin
dofetilide
5parenting
torn
stood
carv
fee
agap
##icant
497
##opathies
protruding
9l
mind
065
300s
surrounded
##jqj
fun
vq
##odilator
chrom
prvc
ctic
509
hepatomegaly
bra
supplying
472
##umped
benzocaine
behaviors
##hole
##the
outcome
slide
sectional
c175
pulsat
discern
reim
##osphatemia
intract
bullet
pasp
##ien
##gd
##acted
350cc
tfb
26pm
508
legally
triceps
achilles
tbb
522
intermittantly
jelly
conitn
hyperatten
##please
915
drifted
infrequently
locules
exhibit
quinidine
nitroprusside
americ
hypoalbumin
pancolitis
##ream
24pm
pcxr
circuit
puts
zar
##ivity
leuc
##ocm
##oseal
curved
##riptions
eu
q3hr
shiley
51pm
cystitis
promptly
nchct
##0u
##itu
broaden
immobility
##inue
radiata
bupivic
nonobstructing
preem
33pm
resides
cispl
huge
pound
##eners
donep
lipoma
deposition
lumens
dstx
nucleus
nephritis
feurea
reinserted
regained
469
keeps
anaerob
aberr
private
reatt
##auer
serosanginous
##oped
10min
452
backwards
torsades
column
atovaquone
464
gn
895
##ursym
methods
##oventricular
diflucan
antep
##ofen
taught
##iple
alfa
omeg
vip
##ctomies
##otility
relatives
hopeful
multior
lens
truck
angled
(?)
sundown
eluting
nondilated
parotids
ncpap
##odenal
interventricular
serviceclip
dps
separately
subpulmonic
##phed
x10
##oplatin
hydrate
cobra
investigation
eyelid
eyed
cleaning
fontanells
transvaginal
##toma
systolics
heterotopic
guarded
duc
##ocolitis
eosinophilic
hypercapnia
osmolality
##enly
attenuated
dysynchronous
506
massage
tachycardiac
opacify
originating
azath
poikil
erosive
cauterized
emptied
custard
gestures
yan
demyel
corona
48h
.).
hrly
524
nonobstructive
trisomy
jmg
rw
##ucial
carboplatin
tuber
502
bentall
omega
jmgw
follw
cisplatin
##icing
disimp
upwards
discharges
antepartum
inject
61m
ileoc
##ipsy
##ioprine
fexofen
hygrom
3h
rythm
##acea
##siness
dyskinesis
##raff
carbam
renagel
bioprosthesis
03pm
512
virid
##oxide
36pm
486
sinemet
angiopathy
neobladder
recordings
d15
06pm
steriods
ecgs
disturbed
preemie
dysm
##etr
##70
hematologic
subhepatic
hemorrhoid
hypervolemic
sciatica
lex
analyzed
proteinuria
bk
dah
##neumonic
takeoff
##isp
abi
09pm
angioseal
deteriorating
cefotaxime
ladder
calming
##uodenoscopy
>##
04pm
53m
hiatus
delineated
##ressin
polymic
##fibro
##igmine
quinol
arteriograms
accidental
fexofenadine
pins
procrit
file
31pm
466
511
myocl
yanke
##ovale
enya
bouncy
catheterize
##feeding
sip
wegen
sildenafil
##iu
##p1
bloating
geriatric
button
gemfibro
schistocytes
##asate
##igested
##trium
proportion
email
hemangiomas
nestled
profunda
gives
##thym
clx
phtn
sim20
482
resections
semiovale
duloxetine
(^
paraval
talkative
interacting
lithotr
acids
x12
retrosternal
transe
12cc
recip
27pm
oximeter
ovoid
ethics
##coming
uninter
##ophyl
##aphor
cit
##idopa
3350
thrombocytopenic
profoundly
intractable
island
walled
reducing
policy
689
ovaries
dtpa
among
paternal
upep
colic
softsorb
sa02
autodiuresis
######
multiphasic
pie
##ezil
sexual
mottles
antid
26cm
colons
meetings
1000u
flexor
protrud
hepc
disorientation
elimination
donepezil
muddy
##asilar
stuck
absorb
exhibited
poikilocy
##onese
inducible
rhythmic
dipping
##oglobulin
subjacent
intens
##erant
##duodenal
##raffin
careweb
strengths
somulent
hyperkalemic
cpap5
##roduodenoscopy
adhere
gemfibrozil
##cting
##ortun
##existing
39pm
locally
cortic
clamping
anisocy
##iol
985
lidoderm
pleasantly
osmo
unassisted
##yx
clipped
continous
12l
criticare
myoclonic
##rc
##tial
undigested
connection
comorbidities
sxt
cavitation
macro
nitropaste
polycystic
2meq
cusp
pi
##iries
##ressants
define
crossm
azathioprine
1o
clamm
parapneumonic
crossing
##osen
chop
radio
tibc
commensal
fna
rail
##anate
12hr
bandages
##tive
deployment
bm22
adherent
##els
##operic
##ogue
postive
spontan
paraphasic
electrical
plact
enterococcal
clavul
norepi
desaturating
450cc
craniocaud
regiment
harsh
hypochr
prismasate
fumarate
discs
addictions
autologous
##hb
##itely
##ensitivity
526
hepato
compensate
cantonese
cvc
crystals
dtv
21mm
arrested
41pm
avoided
ophtho
smile
street
##odopa
interlo
sad
dirty
addiction
cag
tread
bactermia
penrose
ingested
yankauer
carcinoid
lexapro
oup
##ainf
resend
551
contractures
disconne
q48h
##lit
exists
cmr
99m
maee
uremic
##hh
aquaphor
sequentially
glomerul
reads
signals
peeling
blockage
513
##clinical
gastrograffin
clammy
syt
30gms
995
opportun
weepy
afosf
3hr
bay
mgy
##cular
##amn
scales
demanding
plactment
peer
583
69m
##igris
eip
remaines
498
banded
colistin
481
##23
diagnose
interf
carbidopa
2v
aov
##yf
##uly
presacral
516
harm
tand
##uer
15min
manually
particles
chorio
vts
##iferative
25gms
polymicrobial
dac
##illus
underpene
american
dips
suvmax
esophagogastroduodenoscopy
hern
##iseconds
rotational
row
##oscoliosis
pir
neurocheck
##preh
...........
premedicated
colle
004
reticulocyte
8u
dor
offering
##oncentr
viridans
##x6
periosteal
##ee
disapp
abxs
overlap
vault
chosen
##imine
##ometry
incor
lactam
architectural
lithotripsy
jek
oh
##arme
lowering
flolan
80m
regardless
##ceutical
##ugg
ultra
suffering
pseudocysts
radiopharme
jekh
radiopharmeceutical
costal
548
milliseconds
abuts
undet
rubbing
hemoconcentr
atlanto
multiorgan
ween
504
levodopa
representative
soundly
debul
hocm
mj
52m
##rate
comparable
603
superv
180cc
incres
dilute
ptsd
##ispheric
hyperventilation
chiar
intial
interlobular
##rica
503
cartilage
##onase
viewed
appropiate
antero
riding
##ferred
duone
wil
##ressant
cvas
lyrica
##clage
addit
probability
specialist
starter
##amivir
globe
matched
granulating
##ompreh
adc
highest
dysarth
xigris
haze
qh
heaves
regain
demineralized
flonase
definition
polychrom
##iox
thoughts
gastroduodenal
nut
##80
##igram
paravalvular
thk
timi
471
pitressin
poiklo
nj
nav
wise
registered
energy
panorex
sidep
parainf
1440
ligaments
menthol
2500
543
544
57m
gass
celeb
necessitating
hypoalbuminemia
##jug
514
##nrt
microcalc
1000ml
ebm
##port
##oming
22g
strate
##uces
cephalad
mesal
postpyloric
dlp
intramuscular
2f
attended
ischial
#'
cush
45ml
celebrex
400s
##lycerine
ajy
tt
dorsum
breaks
paradoxic
sloughing
gy
myoclon
throb
##hemorrhagic
mesoth
cautiously
pmr
fiberoptic
monit
507
pneumot
evacuated
glioblastoma
pulsatile
anaerobes
dit
qm
nocs
unar
indiv
537
gavaging
fascial
800mg
hz
25gm
relapsed
polycy
##ophylline
iatro
##aur
icr
treadmill
tandem
##ithrom
stix
ptbd
oversed
follicular
business
tng
tias
story
vomitted
serousang
permacath
cerclage
yankeur
ber
##oused
tcdb
546
hoping
##hemispheric
pust
474
rsp
aerosolized
implants
pob
carcinomatosis
perivascular
reve
operate
mesalamine
resps
pinp
##kc
decres
bbb
prescriptions
fewer
##jojqj
concomitant
##olith
aortogram
appointed
hypoglycemics
65m
q72h
jaj
wasn
##actically
pref
fob
##loping
##angeal
##endo
564
reliably
##ingly
##ostigmine
##spect
bupivicaine
individ
12noon
supers
emotionally
tow
mechanics
pngt
kyphotic
finishing
vasoactive
valproic
##pherine
repletions
assistant
traveled
fondaparin
0l
cine
tribut
60min
reconsclip
happen
##rupted
gastrografin
noseble
csurg
##erate
##ovag
nonlabored
60m
70m
redirected
hemoch
amioderone
specialty
interferon
3dev
##roth
reinit
thallium
rated
ud
##orectomy
pelv
538
coordinate
robitus
exclusion
jittery
nortriptyline
anymore
hydrob
hrt
%'
##ileo
pann
irritability
amyloidosis
parainfluenza
!"
lucid
weighed
hydrobromide
##aion
erythro
##espan
##jejunal
seedy
supervening
myoclonus
##cr
##acic
hypointense
pansensitive
bental
capturing
dstix
lamiv
##ampsia
subjectively
##rocort
painless
50m
intraaortic
sweating
discard
2000
oncologic
inquiries
betablocker
hp
##uss
##rick
bullae
fn
##rium
20min
##ritic
atheromatous
q12hrs
47cc
572
stripping
##ocaval
incompreh
triang
iatrogenic
5mmhg
##bound
inflation
561
precipitating
burk
spanning
sdu
avms
dilauded
5lnc
extracted
bsd
##xs
flakes
subcut
hepatobiliary
eus
##lot
##ione
ctp
dimished
nimv
escalating
debulking
lamivudine
nonpurpose
reattempt
ny
##icet
##oge
acv
528
swallowed
pinprick
perist
entrance
horm
upcoming
)(<
hmd
enterocolitis
638
steristr
circumst
dirbili
2x2
sf
construction
antbx
01pm
silver
dinitrate
win
##themia
521
svv
##iled
compound
supplied
interpreting
maturity
deferves
##untary
loudest
investigate
mulit
antisial
>%
##oset
##olone
##uling
clergy
hotn
ni
trile
dlrc
491
##igible
##trating
##trauma
cart
spastic
communicative
talus
##enil
peria
hormone
heartbeat
occational
dilators
interlobar
axes
robitussin
##ifies
tubal
534
afsof
fire
vasovag
##10g
stapled
obviously
1200cc
vigileo
clavulanate
piriform
peace
542
rc
##heal
undert
biopsied
caregiver
supersel
20gms
##rocytoma
arrythmias
pc02
dival
interspace
thymoma
c1751
dysarthric
neon
541
obstetric
upstroke
shirt
afrin
##acking
absol
vasovagal
9cm
incon
consisting
documenting
pvr
triamcin
divalpro
metap
improvements
##choline
cutting
milligram
convulsive
carbamazepine
##teen
sharply
neighbor
circumstances
burs
x7
##teral
569
paraaortic
millimeter
hypersensitivity
##17
##oles
impressive
knew
therapies
kinked
wandering
hyperlip
softer
veg
extubating
568
agreeable
totprot
lacs
ocular
fleets
fiducial
bother
10gms
reassure
fentyn
endorse
snp
sts
normalizing
aglc
flou
microsc
##ynamics
+=.
applying
##cinate
539
##rotide
##ylo
##angement
##ogogue
##kinesia
varicies
##ton
##ament
bpg
dub
peridex
radiologic
##iy
resited
amd
assym
20k
hepb
coreval
013
563
conversations
handle
vigil
cyclosporin
pooling
aox
x8
shing
496
heliox
verbalizes
spots
talar
generator
polycythemia
kind
sga
treitz
retrieval
txp
##iotr
culp
divalproex
571
cellul
taxol
##full
evalute
corevalve
unch
552
stressed
##20g
anesthetic
supratentorial
rollo
hallucinating
bls
gyr
stained
venography
undetectable
blocking
cement
resusp
radiates
contraindicated
culprit
90mg
avnrt
bolusing
##odyne
588
##graphic
##cel
cartr
lactose
567
ectasia
cisat
thread
##opre
##illi
1845
awoken
aneursym
boarder
dwell
mtp
rhc
494
parasag
rollover
##nacl
68m
myocarditis
threatening
polychr
resedated
hemochromatosis
ride
phr
napping
court
ouput
antisialogogue
##alin
thoughout
minerals
lymphocytic
##responsive
4lnp
infrequent
colonscopy
##enz
indef
burping
hilus
reverted
epigastrium
exha
multise
bumper
accommodation
accepting
labetelol
seasonal
hyperechoic
##iations
##bp
##year
##estration
##itent
##asing
pex
%..
thrombin
633
washings
glomerulonephritis
1645
##clampsia
retropharyn
groove
itchiness
impulsive
562
aspergillosis
escitalopram
##rated
abl
##oves
nursed
##tericin
fludrocort
##wash
medfl
531
mucinex
externally
vagina
t98
soaked
svd
alzheimers
3v
lamin
lopress
cxwc
canals
egg
02sats
unarousable
##oxif
mdr
departmental
diseases
sbr
smiling
road
irritated
trump
reculture
##urgery
549
576
macu
sideport
##ocation
brim
whenever
##ophil
effectiveness
oselt
engaged
delineating
binkie
bing
##emat
##ucitation
76m
secr
jxrl
exhalation
kicking
adventitious
ega
desaturate
splinted
shingles
##90
##endoc
ambient
drinker
gemc
##lar
stably
##aden
532
tsp
cartridge
lics
1715
designed
dog
ym
quiac
mouthcare
jks
##ologically
cannulated
repleat
oophorectomy
jksd
014
dates
##arcoma
consents
consultant
synch
stabbing
congl
1p
wedging
hespan
15gms
##undant
magna
formerly
mycoplasma
k4
##enteric
uncinate
tricor
79f
splints
bifurc
bat
##rative
chines
shared
partum
dysmotility
examin
?#
airb
swish
557
553
focally
esophog
empirical
layers
fhpa
alumin
visitation
lovastatin
lengthy
##rio
cabgx2
electrographic
##robasilar
chinese
=========
arises
cmp
577
polytrauma
5units
##abl
10mmhg
##eper
radic
furthermore
moans
debility
1hour
coop
554
polio
##men
triamcinolone
afor
maxed
genta
retropharyngeal
4gm
mip
##iates
trail
##eneic
allograft
rewarm
sere
##tures
##100
crampy
bened
##ypnea
intention
interlock
afterward
massively
nrsg
licsw
sc28
nonhemorrhagic
vertebrectomy
concentric
faintly
sustaining
scaphoid
indefin
12cm
demonstration
hurts
medflighted
5min
myositis
786
4parenting
##bacter
556
634
6lnc
siderails
normothermic
100k
19cm
62m
hmf
ah
##ios
ivpb
prophylactically
fondaparinux
03mcg
##ipsych
vertebrobasilar
pitched
clotrim
amphotericin
trumpet
55g
##roprium
hydroxyzine
##ionitis
1815
globally
p02
##irone
10ps
##udid
neuropathic
chiari
p3
##odeox
578
consequence
conitnue
interlocking
sooth
elevates
cloz
oxc
centesis
582
584
ntd
electrode
##otec
busp
##ners
##obac
crits
2lnp
darvo
fifteen
##lane
##icar
moniotr
psy
11r
marginally
px
wma
##pathy
##opericardium
5p
sited
tfts
sear
cathed
radiated
interposition
hemorr
aova
bos
lorat
##robacter
##lbs
basically
pedun
hds
##ters
1745
73m
vasodil
##xxxx
subcoastal
##ificant
##onatate
sgl
looped
asbestosis
chromos
occais
caput
precise
chondro
stops
fort
##ipr
fiest
tf15
obliqu
hyperexp
disreg
evenings
compresses
rituxan
1meq
##enhe
##icate
extremties
bled
monthly
biplane
viability
##...
##ynchronous
benzodiazepine
vaccination
caval
takeback
virt
blasts
chorioamn
aluminum
aad
##inction
##neuro
40gms
grab
591
527
574
consistant
decompress
fioricet
viseral
hd3
phlebitis
obey
tributaries
clotrimazole
##icans
styloid
contine
poison
gallop
inflamed
clarified
endometrium
sidehole
gastroc
quantitative
gastroenterologist
benedryl
gancyclovir
519
layer
cigarette
##60
##chr
diverticuli
##lucose
burkitt
##lb
dish
558
52cc
##deve
melana
sirolimus
endocrinology
effaced
losing
focusing
exactly
headedness
microcalcifications
sd
tiz
adam
160mg
laminectomies
inotropes
##arth
waist
tick
carin
bike
mobilization
frustration
defecits
citrobacter
qachs
intersp
529
benzonatate
saliv
anaphyl
endorsed
##oderma
eighth
##tosis
weeker
sscp
bounding
##ysm
aplastic
antipsych
bronchodilator
618
1150
miscellaneous
tall
intrad
papilla
sxtn
venodyne
chorioamnionitis
ner
12mn
lmw
unresectable
4x4
atrio
pararenal
viscus
herniated
nasotracheal
wane
##vated
pread
hepbs
592
tracheotomy
800u
tighten
allogeneic
entrap
kkg
forth
recived
describe
){
stv
##ementioned
implement
antenatal
neonatologist
hypercoagulable
propafol
neurochecks
##oprecip
##fc
##ossible
##achy
##iastinal
narrative
##emetics
##enheit
pint
##atics
pros
cooler
decompressive
jerks
##inted
tachyar
alkalemia
vacuo
teleph
anasarcic
ftt
butal
insitu
peaking
622
antidep
hooked
lability
diclox
hypercapnea
parasagittal
cfa
##uls
35gms
##imetry
antiemetics
aching
analgesic
distraction
darvocet
nalox
nonresponsive
diver
scrat
hemicran
*[
pvi
2cm2
atria
110mcg
speciated
nitric
lltc
rolled
entrapment
lf
##icin
##odensity
exiting
##esthesias
soreness
disection
cpap6
cryoprecip
cryptococcal
urethra
gemcitabine
butalbital
##xime
spider
copius
stabilizing
unsuccessfully
incomprehensible
kkgc
##ali
##anus
cefuro
dextro
multilumen
striking
avp
intracran
neurorad
aggrenox
pcw
573
ideally
listens
distributed
tn
##adid
##etom
tizan
hemib
employment
heaviness
serosanguineous
rsrc
steristrips
quinine
cephalization
eccymosis
mct
wb
lean
40min
(=
##opsoas
reccom
naloxone
univ
dilu
shortening
polyc
spanned
exhibits
hemodynmics
thromboembolic
carvue
sundowning
cefuroxime
normalize
pictures
vicryl
##onidine
##uberant
15ml
albicans
amphetmn
jxkc
aforementioned
5gms
##py
##oprol
agit
589
compensatory
counseling
kilograms
theraputic
hyperenhancement
x20
consists
lifted
inatt
##ectomies
##ofovir
688
enteritis
strengthening
fluorodeox
pyuria
##yglucose
pneumotosis
fluorodeoxyglucose
assum
psued
653
coagulopathic
##encephalic
nephrostogram
quinolones
throu
tags
cinacal
nutramigen
vibration
meatus
tether
tvi
dexmed
8th
nvs
reasonably
682
1750
##mis
12p
insular
48cc
autor
playtex
##abec
##aded
spr
valproate
imbalance
##oms
speach
thoracocentesis
learn
ration
edc
##diures
postion
receptive
characteristic
##relin
novolog
flowsheets
rhonc
withd
##izable
labial
simult
598
amputations
independence
soluble
##ogeneity
pyrid
ibs
vh
##trig
10units
activation
586
usg
eaten
laryngoscopy
##7p
blade
youn
683
perspective
coded
translation
547
d11
erratic
mixture
orientations
homograft
##iles
cardiophrenic
repairs
correcting
oxcarb
hbc
##jet
##+)
medullary
awakes
sclerosing
mediastinitis
##acaine
##emnt
trendel
6mcg
pay
27cm
cyc
##===
prednisolone
##degrees
cinacalcet
estr
888
succinyl
throbbing
tca
##bling
60mcg
nsip
embolize
mvt
rital
##oencephal
touching
io
olec
##amate
##aved
pannus
je
intral
embolis
soaks
radiculopathy
sauce
##cent
urologist
hernior
8peep
##eny
dmi
616
cervic
bathed
occupying
explanations
phasicity
##atan
perir
perium
obtundation
oversedation
dilution
cooperation
wegener
qhr
dropp
trabec
mouthwash
references
variability
polycose
pne
1615
quantify
sho
738
signficant
dexmedetom
4a
tem
chads
##ette
##opressin
macrocytic
##light
anywhere
64m
684
ventriculography
hypopotassemia
ritalin
5gm
uip
integrelin
gdc
##oblastic
chnage
brimonidine
tuck
toast
641
inflam
statements
##aseptal
##ellation
##liant
creation
isolates
optimally
cholestatic
##olved
##oxyph
594
ahead
##table
##fe
relapse
engage
vertebroplasty
pentam
tizanidine
("
resite
1350
osteopenic
disregard
simultaneous
599
scream
07a
accust
43cc
tumors
reacts
?'
abil
indig
arthroscopy
eagg
tetanus
telephoned
##ented
15mm
occluding
requring
##rell
##trib
guiding
nightly
643
648
adrenalectomy
bifem
vial
##igem
sees
carried
##naud
46cc
raynaud
voiced
fahr
566
remembers
mediastinoscopy
discarded
bursitis
##ureteral
g1p0
2s
compart
##ifiable
paramedian
demyelinating
overdiures
50min
608
phoslo
('
##onary
##opulmonary
prin
paraseptal
nsicu
pcm
voices
desaturates
cryoprecipitate
perirenal
ert
perfusing
##ruent
stablized
##not
##osphol
##shift
##oflu
##oker
excluding
suboptimally
combat
titer
inconsistantly
dysme
penetrating
pnuemonia
olecran
##cutive
symp
malaria
purulence
mitts
dexmedetomidine
##tty
rr20
emt
hyperchlor
55m
synchronous
places
38cc
clothing
rebleed
##ked
spfc
yielded
677
suprac
tole
53cc
579
mammography
indigestion
cas
##do
perif
##yramine
candidiasis
hepbsag
8mcg
theophylline
##ulary
spill
##berry
6cmh2o
reliable
resistent
##enda
propoxyph
56m
phlegm
##zolamide
##oposterior
propoxyphene
qweek
normalization
lymphedema
deteriorate
ei
impossible
venotomy
acknowledges
lentiform
lw
tnsf
disorgan
15mmhg
45ns
proven
declines
##alm
unb
sbna
glucos
urostomy
housing
seeding
##~~~~
mediated
repost
toleration
quadrigem
splenule
college
30mins
paresthesias
lga
bm30pm
ducolax
periaortic
carinii
plenty
632
##@@@@@@@@
poba
?.
##ude
kids
711
tranferred
rituximab
trileptal
fahrenheit
?<
dbili
##mo
suppressed
609
5cmh2o
smears
task
##agnes
osmolar
tendons
myxomatous
614
heterogeneity
preferred
##opleural
autoreg
pretty
ascertain
varix
topamax
mortality
triangular
656
encro
sv02
dnge
nosebleed
examiner
olecranon
endole
testicle
triplets
dupl
calcitonin
meaningful
tuberosity
da
##anged
pov
721
usage
wp
shel
37cc
match
laid
protecting
rprnr
##ospholipid
endoleak
>?
07p
##oplasmosis
nevertheless
dicloxacillin
##ulfate
41cc
##oscopies
8p
astrocytoma
obliterans
ileoce
##emand
32cc
612
handles
exacerbations
connect
euvolemia
mant
humidification
polymorphic
passey
##tria
20kcl
relating
636
deeper
pullback
antipl
locate
reorients
streaks
rescue
succinylcholine
##ua
##ithromax
##33
##aton
##terine
##opac
atri
metrop
90min
opted
shins
##oplication
trialing
puffy
sooner
retrx
antral
lactamase
p5
##ories
lactobac
shortened
83m
!!!
menstr
aado2
reprod
equals
orthostasis
##orbital
teacher
anastamotic
##body
##uts
617
cardiomyopathies
engine
opioids
trendelen
zithromax
chl
##ffered
atresia
trapped
cholestyramine
microcytic
constriction
stuffiness
redrawn
incorrect
mute
##uffp
epidid
chewing
fundoplication
overwhelmed
nin
##sever
66m
rta
##stitute
wider
##chen
mucositis
capsules
recomb
##abled
truly
##ctions
indbili
35ml
iliopsoas
peduncle
ia
##onse
multis
extras
hurt
x24hrs
compartments
].
infiltrating
692
corticated
music
loz
x18
67m
downsloping
accustick
3units
##lette
##osurgery
actos
slurring
44cc
donation
hydrochloride
macer
algorithm
rewarming
occaisional
mecl
##eping
q2hours
pam
stressors
723
monohydrate
jkpe
##urge
##astia
apml
mm2
##aphos
extrim
##oxine
1050
phenyt
tendin
caudal
oseltamivir
conglomer
labia
downst
thinner
breastfeeds
250mcg
paramediastinal
retrospect
opioid
congruent
rvedp
shoot
49cc
swaddling
1445
sickle
omentum
cep
##dinger
noncompliant
kitchen
mx
##iing
##ker
##cinosis
581
incisors
ballon
unint
seldinger
anticoagulant
periumbilical
##eril
immodium
q6hours
pleurx
peacefully
tel
recipro
liws
70ml
##omedullary
jiro
##lytes
##iez
699
bacilli
wakeful
mucousy
fixator
cardia
jirove
##ingu
resources
##loving
crackers
concurrently
quadrigeminal
regression
613
varies
septicemia
schf
exposures
eats
##mts
biloma
604
vasotec
##aspin
ipsilateral
dysmetria
teds
##q4
##legic
responce
s1s
nearest
tonsils
gynec
jiroveci
fk
593
##calcinosis
tapping
hypercapnic
gynecom
biax
observ
roomm
dsats
nitrates
drowsiness
resusitation
suprag
mit
##isch
autoset
climbed
jbre
wen
inad
inactive
##thes
79m
anatom
campy
camphor
gynecomastia
prese
scabs
074
pndg
ipratroprium
kerlex
##itous
##tra
dyss
nes
attrib
##apsing
18cm
surgic
fascitis
##lottal
undertaken
preadmission
607
cpm
ostium
fibrinoge
salmon
fleck
exhibiting
oxcarbazepine
/(
##imazole
nss
dislocated
sampling
consecutive
craniocervical
cloac
30gm
726
antih
skilled
suicidality
hotel
hemiblock
##elvis
portably
polyv
bovine
racemic
deposits
povidone
##ectasis
fighting
60g
morphologies
ecz
texture
individual
fiesty
biaxin
##centesis
##ots
flowing
712
slipped
nephrotic
phlebolith
loratadine
vasodilatory
##reflex
##omet
neob
##sectomy
erg
628
666
rhinitis
meclizine
##arabine
trali
obj
micron
scleroderma
defibrotide
##liner
##ball
##throm
overinf
transabdominal
##oved
673
637
ltac
esophogeal
gwp
throw
##ocate
infnat
cystogram
aortobifemoral
##foot
##omes
repiratory
##ovorin
687
glc
barriers
ninth
cloacae
functions
##sustained
##ibrate
hypopharynx
##osterone
mism
##ondr
infund
##opping
basexs
67f
##40g
deltoid
billroth
indefinitely
pair
##asol
brn
president
sidew
sounded
textural
1min
ipm
##icort
impella
flanks
mbi
paresis
##suing
hhh
polyvinyl
confer
624
cooled
pnd12
mexil
##arted
slumped
pcom
symptomatically
calvarial
protrudes
labat
sweet
626
constellation
scvo2
hemosider
bne
attain
mlhh
processed
hemipelvis
##35
##odol
placent
627
621
methimazole
groups
eyelids
##litazone
fel
##oqu
##enone
evar
inappropriately
anzemet
poisoning
pentamidine
psc
59m
gasping
##raid
coccygeal
danger
intracranially
##aspinatus
lately
ridge
##cchr
albe
##ystoles
##ynchrony
rescus
subclinical
686
microangiopathic
binge
##oproliferative
abilify
extrasystoles
cjojqj
tin
pert
preexisting
657
619
micrograms
reversals
dorzolamide
##ophilus
##x24
##ineal
discre
1515
senior
##ycle
phy
##litis
##oculated
##unts
subep
606
released
reddness
c02
unal
oximetry
toxo
pnem
fusiform
campylob
pter
tige
717
utility
cytometry
expresses
precludes
multin
parv
quarter
674
63m
gda
pft
##blo
##34
crust
metic
d10pn
reconsulted
##rea
persever
afraid
587
sweat
intensiv
disconnected
honey
##wt
demands
597
##lobulin
zarox
withdrew
p9
200j
cancers
dura
##opacified
conglomerate
reciprocal
##inef
identifiable
646
lactobacillus
zo
eyeb
antiar
femurs
besylate
##rellin
peripro
curled
peristal
hyposp
sole
strang
marking
1545
gamma
defervesced
gle
##static
50gms
polypoid
odd
36cc
tracheo
reassessed
osmotic
hbsab
triamter
nms
bilob
opaque
##auterine
behavioral
staus
campylobacter
longterm
integrellin
reevaluated
amino
pressers
degloving
conjunctivitis
ibd
nidus
phenyto
recultured
oxza
##tein
retaining
reschedule
fluro
needles
sagittally
reddish
pxdb
702
downwards
proctitis
stockings
larynx
##osite
008
##ocalc
complicating
multisequence
^.
antiplate
p10
##ulop
##ifl
belching
76f
nonpurposeful
diluadid
rationale
intensivist
8hr
##apime
polyd
escalate
milligrams
##atched
##avity
596
omfs
trigeminal
##allus
beneficial
uneventfully
sniff
p8
sits
##130
##erf
toel
##trans
##iaper
##oured
laxatives
geriatrics
contacting
##ymic
participation
reintubate
kangarooing
permission
pun
pav
inspect
broch
pod2
antiob
susceptible
snx
inac
interm
##cmo
homogenous
bneign
##atide
500s
prominently
ectopi
0b
lmwh
fistulas
retainer
stitches
##requ
##oda
specs
bio
gutters
dacron
4p
cil
ygd
rises
eczema
ecmo
leaning
##vered
##aping
hypom
phallus
guage
012
663
intrapulmonary
extraperitoneal
wrote
24cal
cabgx1
stimulator
autope
encephalomal
qidachs
sitters
proceedure
daps
calves
623
aggres
crosses
##iud
chad
varied
pyelo
multiloculated
obeying
allogenic
hydroxyurea
caretaker
gyrus
dapsone
expir
lrge
osteophytosis
developm
sedimentation
##embolization
hallway
28cc
etopos
axill
possibl
qdiaper
wakeup
atypicals
subglottal
choledoch
tympanitic
orthopaedics
eyebrow
##aterally
postural
thoracostomy
multinodular
##terase
05mcg
45gms
sim24
51cc
sanginous
betablockers
vist
##iologist
##ccal
intentional
antivir
300mcg
entirety
pregnant
riton
##resion
placenta
hyperph
obscure
trasn
##enstein
k2
##ration
##ern
##arious
serially
659
693
tachypenic
university
##otomies
teen
radiosurgery
arom
##aris
spend
bilous
33cc
611
midnite
traverses
elicited
##astin
30cm
##ebach
881
namenda
1b
lcp
clench
pancreat
dump
##eared
22cc
644
669
##insulin
quadrip
auscultate
pregab
presumpt
##upright
edu
residents
referrals
programs
recognized
etoposide
unexp
excret
cefapime
694
fistulous
contributor
strenght
lcpc
&=
fitted
niss
##etan
70g
##itres
b32
g6
slt
71m
7a7p
oozy
intermitently
triamterene
conce
fissural
##neuropathy
giv
##ony
atx
elvated
oligo
kyphoscoliosis
berenstein
pregabalin
cate
sizable
financ
094
bupivacaine
lopresser
ath
pw
race
##achol
aspen
intrauterine
95cc
fired
contraindication
converting
cardiothymic
recanalized
craniocaudal
65g
coronally
900u
cotn
##angements
bronchopleural
trops
737
tenofovir
irrigate
facilities
resuspension
##ora
##ounts
##ofemoral
maex
>//
prematurely
macroph
buccal
salping
extrimities
carries
708
hypospad
monitors
bilater
hallux
lockout
##aril
##imet
detrol
meticulous
remod
##ropan
colonies
679
678
peribronchovascular
ymf
2ppd
resorption
propt
blush
volar
697
preprocedural
rebleeds
##x500
fludrocortisone
writ
flexeril
transep
##ygen
coinc
calculate
652
appropriatly
746
nephroureteral
experiences
summer
polyneuropathy
nbps
6p
spillo
visibly
reformation
x14
colonized
##x22
anomalous
ergocalc
spillover
##iquot
exf
##imate
atra
##clamp
axox3
748
semiupright
##oclonal
postpartum
presumptively
unexpected
siph
##ivation
debil
regulation
##ysed
straightening
uncons
attendance
ditropan
rhoncorous
gown
shf
humulin
putamen
##osf
chemically
tigecycline
sort
ptl
084
septations
broadening
multiform
manipulated
inadvert
mgus
surpr
gesturing
ectopics
diversion
hub
##fuse
##anced
016
prolene
t2dm
metatarsals
consequently
yankaur
instituted
forced
##ifib
lix
nonsustained
proprio
flares
45cm
discour
718
731
strictly
manifested
##osarcoma
75m
##tec
629
300ml
recurring
increments
##umbs
assure
##tting
##nier
evolved
suprahilar
nissen
##mental
worry
02mcg
paid
752
140ml
54cc
1650
besides
flecks
resear
ans
brachy
80meq
55ml
maxilla
fingert
dialudid
ergocalciferol
kep
papy
##trex
##alar
801
polyuria
ronchorous
snack
preformed
wth
##ains
clob
diagnost
pivx2
732
psychotic
albeit
eq
qp
733
##adenoma
##ivated
bloods
revis
absor
iod
vr
709
##adiness
lbm
##proced
territories
ertapenem
ritonavir
##amines
perimes
654
branching
viable
##ields
discectomy
recurs
500x14
technologist
toxicit
##bloody
transependymal
713
dubhoff
salivary
##vable
##leural
011
roomair
approximate
1415
paracentral
introduction
")
##++
lipomatous
1450
acceptance
atal
701
647
662
fentynal
##ritis
##abond
repo
58cc
image007
latching
bicycle
choy
rid
softeners
dbp
recalls
valleculae
perimesencephalic
ganciclovir
##21
56cc
choyke
stains
tamox
caspo
npt
sight
##aiton
##adione
exud
##luded
closley
vascul
tachypne
reconsider
##uran
ala
infu
nonbloody
772
nitinol
wonder
glucosamine
encephalomalacic
6units
mas
vul
forty
postbypass
pedial
argues
sand
tighter
mmf
prominences
satisfactor
violent
##esartan
##ulatory
##ubated
##udin
meta
genotype
situated
gassy
##roken
##ompartment
forming
unopacified
shsf
regimine
6hours
orthopaedic
##fj
##rep
rets
neice
enthes
##rometh
aaox
florinef
tendency
endplates
ti
vz
45m
strugg
##ismus
bulla
038
bedbound
malform
741
ambued
names
hemicraniectomy
siez
thumbs
storm
009
attemp
oxygenate
schmor
petechial
14d
frankly
indenting
mumbling
shelter
##iflush
##ancies
2115
ascitis
671
bwtn
##````
cyclob
phleboliths
inaccur
tamoxifen
wi
##atellar
awar
catast
unreli
dangled
microscopic
ept
##oresis
80yo
658
..??
nebh
immobilization
hyperattenuating
##omist
ord
wore
57cc
t97
zoys
##free
##adime
##lo2
##afe
preserv
nails
immunosuppressed
omniflush
autodiurese
reamin
medulla
inspection
729
664
environmental
articulation
hemorrage
discrep
papyr
6f
9th
##atum
743
##ibrated
interspinous
cyclobenz
d7
apetite
064
removes
intraabd
insuffic
preventing
aft
worn
691
ilium
glee
0mg
aed
##fir
seb
shaky
##aprine
##obbing
improvment
##plan
scared
hypertrig
females
dermabond
sytems
a3
##moker
converse
radiof
78m
hoars
##ancreat
##endocrine
schmorl
##esonide
##orp
16g
occuring
raw
cerebritis
synov
unbroken
satisfactorily
##hugger
attorne
728
dmfj
pathologist
choly
ibw
unsteadiness
unconscious
dg
hepatectomy
714
mastoiditis
cpks
budesonide
##ifibatide
notch
afs
hemodil
768
prostatitis
epiglottic
gluteus
5dev
effus
676
computerized
engineer
mest
##icially
talc
inconclusive
pct
##etasol
arhb
postproced
desm
51m
mobitz
stridorous
0mcg
moxif
##iflex
pulsed
707
urge
primidone
odyn
maex4
##car
##87
weans
30mm
ages
antiph
breather
produces
##ophagia
circular
deteriorates
roommate
proprioception
fw
ow
transfix
collab
719
rxed
crossmatch
neuroradiology
##hm
##ven
confident
claust
parasth
formally
pectus
##notes
mismatch
chads2
snt
##ilial
leaves
requirment
doub
##months
##ience
##oia
##orate
1620
uppers
esterase
784
orifice
isollette
parapelvic
loosely
attorney
zyd
024
##iscus
tommorow
disorganized
##pd
##ouching
chr
patinet
hemot
slip
hollow
841
##ystem
exhausted
malformations
ropin
##oules
034
elicit
financial
b22
##umab
pe22
neurosurge
idioventricular
hygroma
##iency
##uctor
letter
leucovorin
cushion
2b
hif
##ilty
painfree
evaluations
##taing
q1hour
rebleeding
vzv
##anl
##ulsed
charge
hemet
bsp
65ml
696
##loaded
tibiot
##zole
distingu
631
3liters
appendiceal
cyclobenzaprine
##emesis
orl
##ubo
749
gyri
zydis
maker
monocytes
neuroendocrine
invading
dangle
5kg
abst
orch
traced
74m
50mcgs
malnour
cholangiop
##ialis
loculations
pravachol
##ertic
consolidated
bigger
peerl
posey
transvers
ventricularly
75f
tunneling
syringes
##entulous
aliquot
avand
covers
purpura
##requency
unreliable
tibiotalar
recliner
##riction
60yo
metam
tables
700u
irrigant
clobetasol
disabled
cared
beeper
procain
lessened
81m
763
vomitus
solitary
dbc
lub
rag
##omorphic
##hyseal
)..
##mgb
39cc
722
advances
birthwt
nonsmoker
transluminal
##obstructive
princip
##oquine
subependymal
11a
681
788
naris
specialties
claims
blowing
shrug
aberrancy
atalectasis
cholangiopancreat
##ayl
transg
drove
deficient
mjmgb
reveiw
unaltered
cub
eug
acls
finalized
651
collagen
1550
antifungals
ital
##hance
##oling
plating
cardiovascularly
649
msicu
1215
(+).
implanted
awareness
radiofrequency
668
adeno
##uodenal
writer
eptifibatide
papyracea
so2
cmc
mngt
younger
##ona
661
300b
shots
recognize
burns
g4
lag
south
phe
27cc
burp
##unky
##ifed
compr
777
69f
quinapril
redirection
x30
ample
proposed
698
listhesis
unsafe
drew
gtc
xal
mbm
occlusions
myelopathy
overdiuresis
odynophagia
fits
lighter
sss
hemop
suctionned
readmission
##oplasia
sidewall
rhonchus
saccular
bonding
nitrites
##orenal
parast
##ystemic
tummy
meropenam
demented
hypercapneic
noticeable
pruritus
##healing
')
##odan
18cc
occation
closes
62cc
dorsiflex
weighing
menis
stitch
bobbing
##iately
##ache
hyperreflex
nondep
ceftazadime
mycotic
permis
derangements
microangiopathy
combativeness
cholangiopancreatography
##ivus
anch
043
##weigh
deeply
rigoring
dampening
azygous
claustroph
cog
friction
##icious
##olip
intervening
whereas
dissoc
hoarseness
bpp
##wed
pht
1345
thorough
ossific
bifurcations
ways
##anolol
703
55f
##bearing
withh
inciting
34cc
##tinged
anechoic
velc
nitroglycerine
tracheobronchoplasty
uncovered
##sang
##estic
recvd
valcy
avss
progresses
neuralgia
acquisitions
cere
##operitoneal
hd4
lingual
rtxs
myxoma
accidentally
inaccurate
store
foref
10d
52f
747
chemoembolization
wiggling
readjusted
sxted
search
1kcl
litres
pneumopericardium
dystrophic
##nine
##onel
hyperemia
permissive
##gectomy
motions
672
stabal
percutaneously
transmission
hesitant
serevent
avandia
7mcg
wel
reocc
postobstructive
paranoia
exudates
p4
atg
flownotes
2145
leveled
socially
chemorad
packets
2no
dna
ones
heating
##erectomy
pervious
monoclonal
subutaneous
outpouching
vicarious
manifestation
parastomal
flipped
716
##itiy
zoysn
bloused
redose
q12hr
taut
recalibrated
##ischemic
research
nonhealing
28cm
mentally
779
cracked
laxative
##uabted
1amp
p12
wip
extinction
suctions
46cm
detectable
736
poles
tibialis
transportation
resists
gather
##idronate
mm24
propanolol
calculous
underd
799
strategy
infundib
gurg
##asias
inpt
infus
hemm
interhemispheric
787
bottlefeeding
obtur
blown
anticoagulants
neruo
kepra
breif
cuffing
convexities
translocation
fes04
electronic
tha
10p
decereb
t2w
maculop
##orphan
epididym
hypertriglycer
italian
tire
interst
intraspinal
expans
hgt
upgrade
suppressive
recept
spontane
mdag
81f
63f
illnesses
.....
##opausal
screaming
quadriplegia
mcp
##chy
##imia
holter
delivering
bacteremic
varicose
6a
dge
pag
##oxid
phosphorous
instillation
introduce
claritin
soup
##uterol
eva
##riate
conclusive
dissecting
cister
p6
##armed
discretion
portos
aprox
adjuvant
conjug
secreation
hemodyan
tyel
town
##ulog
##adj
orderd
items
744
jail
##cain
##itons
immed
drai
aran
hrr
enceph
serax
##ofib
##ucil
500x12
cervix
792
834
mandated
reevaluation
bcg
tray
respi
754
742
##ochrom
videoflu
hydroxych
##amically
outweigh
25mm
femorals
pinkish
74f
pgy
tentorial
reassessment
readjust
battery
pu
clivus
posit
idea
depolar
44cm
melen
cryoglobulin
videofluor
ets
stj
hex
heave
##apical
stimulate
tethering
aspirations
mechanic
e26
herpetic
strike
portosystemic
pshx
autopeep
antiphospholipid
tess
##athetic
##contrast
706
elevating
##ought
##plantation
tones
mastoids
candidal
laparoscopy
simplex
sorb
antigr
visipaque
expectorates
pamidronate
##ompartmental
depolarizations
tts
##late
discl
antich
808
##ietn
biaterally
levofed
polymyalgia
parasites
optimization
overwhelming
chondrocalcinosis
802
anyone
##nios
##????
oxygenated
1500mg
transcutaneous
talon
systolically
oj
##isons
##ello
30p
intrarenal
48m
likewise
##rosyn
cth
acomm
fliud
translate
mulitple
tnt
nocardia
amnts
2050
017
neutraphos
maculopapular
transffered
necessarily
dextrometh
epiglott
meniscus
blinks
crushing
illeus
vh5
##ada
781
838
sleeve
supraglottic
antigravity
##lt
25ml
priority
751
captured
obliterated
slighlty
transection
aranesp
##atis
##itial
chek
##endations
727
78f
##oplas
paraplegic
unrelieved
mexilet
##jugate
macerated
cardiov
##bcl
refusal
mirab
procainamide
postures
hyperosm
798
psyche
jirovecii
1wk
fio
desic
varicella
##escent
blinking
##gol
##imask
##oxia
microw
torsion
immobile
endocrinologist
hydroxychlor
mc
imodium
bloodtinged
15gm
50cm
actions
817
suspended
796
methylphen
discovery
##29
attem
necrosectomy
constrictive
interface
cisatric
##fp
##itite
rehydration
54m
pppx4
tetro
pteryg
hypertriglyceridemia
##vation
##bex
steal
##ugal
vacation
barotr
cvo2
lowers
steatosis
insufficency
2nacl
##ato
unp
nonischemic
704
voluntary
093
purpos
##hydram
interactions
mesothel
antiplatelet
asacol
##agra
##estyle
812
##pretable
isolate
1680
rousable
tard
##olipin
recur
bland
suckles
##rythm
aquired
methylphenidate
##hter
infx
abduction
epider
grogg
82m
adenomas
reqs
nimbex
proptosis
malnourished
obturator
##lr
##wm
appar
radiodense
bridged
nih
##27
40m
indeed
2250
58m
x16
organization
topir
bisulfate
##robid
hlp
2t
##astim
758
769
transplants
842
masked
forgets
choley
pla
1850
coloring
sagital
mycostatin
drainge
remodeling
nuk
##aying
##erette
typed
neoadj
swaddle
substances
spreading
6o
##urbed
neostigmine
##ards
demar
959
813
mirap
favors
mexiletine
##inarily
monilial
17cc
fibrous
pericolic
fenof
enteroscopy
lids
troch
exercised
fronto
mobilizing
flecain
optham
towel
hypomagnes
##hydramnios
##cosis
797
##eeding
aortobifem
hyperphosphatemia
cock
tars
##mall
150meq
adren
##ifying
dropperette
salpingo
god
una
##oluc
amorph
sedations
x1hr
76yo
urines
scheduling
abps
parietooccipital
occationally
5cms
pate
753
766
transcatheter
dystrophy
uninterpretable
chlam
hexav
sab
tells
##orionic
70mg
961
773
fournier
##zyme
schw
cardiovert
polymy
linen
hexavitamin
joules
mongol
sclc
psupp
miss
stripe
valcyte
mirabilis
topiramate
unimp
cries
psori
##ignificant
642
kubs
permits
multipodis
navig
fenofibrate
laryn
##aic
45mins
distened
tolerateing
##yer
##inon
##olyn
20gm
##lioma
fluctuance
diagnostics
ventillation
##ffp
web
minus
actonel
2245
downstairs
##inin
radiotherapy
105cc
1145
densely
practice
ginger
2045
ps5
toxoplasmosis
macrobid
traveling
discouraged
barotrauma
26cc
ultrasonography
psoriatic
9mm
mim
##oggy
##izole
##obasal
aspart
2215
nsvd
762
bandaid
mantle
dextromethorphan
groggy
10gm
##ypsin
herbal
778
wraps
tentative
decubs
kinase
retxns
fbr
fals
jan
##uf
50gm
echodensity
echymosis
##olipoma
undist
31cc
##esophagus
cleansing
multisystem
##iure
resucitation
ptfe
10k
##ourse
12a
tibi
annual
conspicuity
mexilitine
stjude
flecainide
restful
ettube
electric
73f
##ocoria
hyperventil
hbcab
pppx4ext
##omeatal
env
radiography
echocardiograms
purees
orthostatics
trigeminy
femoris
bilobed
fingertips
forefoot
hydroxychloroquine
undisturbed
antig
avastin
virtually
ppl
spb
driven
regimens
##ophosph
arousing
arouseable
##otropic
hypophosphatemia
duonebs
mere
##ets
teh
pean
783
1900hrs
classic
diapering
underpenetration
##arthrosis
anatomical
mongolian
kill
udp
whis
desqu
65f
aneur
olfact
prothrom
aspf
120ml
naprosyn
##uerysm
cory
ademand
carinal
topically
ehab
wcc
##onec
midl
57f
attributes
distinguish
5k
##pts
closest
ankyl
sequestration
neoadjuvant
4b
003
cannulate
dryness
724
voicing
##oprotein
intermitent
cue
pih
reorder
##apl
arrous
hyperal
acad
35mcg
decent
1015
polar
scrub
bactroban
recipe
laminar
##oline
##iden
weened
timely
hypotention
pf4
attenuating
angiograms
horse
robust
deflections
siphons
absorbing
xalatan
hyperosmolar
##140
medull
imuran
08mcg
pfosf
disimpaction
11th
interrupted
hypoenhancing
844
hipp
excoriations
alleviate
=============
desquam
dich
pram
spina
nonenhancing
callout
prodrome
esophagogastric
phenobarbitol
kl
##ulon
1740
033
##otherm
846
extrapleural
moxifloxacin
desiccation
microwire
a4
hib
folow
044
colony
liquidy
maturing
cachetic
wak
##fied
nom
##iplex
lobular
heals
734
pathogen
vaccin
lacune
kleb
anaplastic
apraxia
saved
thrown
atm
##irudin
##istically
appitite
cryp
809
42cm
ultracal
humulog
bulges
osteoarth
barbit
turb
ivabx
dying
van
##urated
23cc
dime
852
854
ventriculoperitoneal
blistering
challenging
##rub
##icat
##therapy
hemoph
019
accompl
creating
mucomist
##onecrosis
iw
##trop
##ecks
873
wker
darker
crescent
incresed
implemented
wakefulness
pavulon
mirapex
##femoral
notification
##amet
##mented
replen
##asalazine
fainting
fwb
ucg
##abg
butter
pars
anisocoria
?).
reper
worth
1115
ova
7u
28mm
639
microperf
##ydia
##aln
##rican
021
827
erectile
thorazine
compounded
tinn
mestinon
decerebrate
##x8
neocate
spong
interbody
022
chlorothiazide
3lnp
condyl
viagra
mixing
discolored
placeme
antiobiotics
@.
mie
12u
depicted
tprot
nrbc
##bacterium
##ictal
retry
##olosis
##olonic
##avated
nonvascular
pulmonale
04mcg
4liters
indexed
squeezed
hliv
tang
sizeable
encou
birthweight
6000
forearms
rheumatica
metabolism
contiue
competent
2days
blu
hcg
qvar
##essor
ventill
african
satell
023
073
vermis
workers
58f
iliacus
cortis
(#)
corticoster
##lete
avn
portugese
adb
incoh
771
851
pod3
knowing
ileocolic
expansile
##oxidil
wc
acromegaly
bll
739
brushings
periprosth
cse
##aul
rr50
manub
clinicians
68yo
cyclophosph
menstrual
chemoradiation
falsely
vori
selection
remic
hypotonia
884
burps
transcath
pentobarbital
reexpl
labwork
sulfasalazine
1045
adhd
shadows
vesicular
prothrombin
zen
##odon
remais
guaze
vapotherm
818
seemingly
refrain
inadequ
wenck
8a
haste
patello
minoxidil
bronc
48cm
84f
consisted
1245
quantities
glioma
myl
##omata
##ordant
antibxs
ocas
d13
hemoconcentration
trendelenberg
2kg
##atation
##asa
abt
adq
##yps
overse
heprin
2000cc
rns
inflicted
satellite
##oxib
833
appendicular
exchanges
delerious
pyridium
nka
##atoma
unfor
prs
soapy
elec
2345
872
...................
tasks
sos
##hov
##enties
14cc
##iatal
secrections
nondependent
3days
10mm
##ageable
continual
856
ingestions
diru
dissociation
pj
##pile
droned
extem
2430
epip
59cc
47cm
arrests
pnas
contractile
rings
arterially
morax
##yll
lovingly
beside
funeral
medullaris
wf
edentulous
50f
16cc
hypotn
opacifies
weds
narrows
instill
>>>
suppport
cpa
500u
893
pipercillin
tenth
booked
pinning
natg
gliosis
##irole
conference
f6
k3
##!!
##erence
##rogram
console
##ensus
##acked
70yo
specify
822
reflected
decompensate
ropinirole
##ocet
43cm
marginated
loosen
readdressed
crescendo
cric
##oing
##acd
controled
55yo
accessible
menig
c1887
impinging
##oir
##ubation
fec
877
g2p1
cauterization
infundibulum
6bili
patientno
##oving
mm30
35gm
##cephaly
pulmo
##phrenic
tapers
chlamydia
patellofemoral
5d
lopr
##iks
##eded
feature
effic
967
962
thromboses
##moreg
821
txs
170cc
suprarenal
reacting
explains
plethora
menses
bz
perival
##uctal
803
..?
duv
saliva
hypokalemic
ctscan
echymotic
fet
sne
leiden
ptld
brighter
belt
thermoreg
793
##ozole
tightly
dti
plaquenil
##issural
cagluc
stages
cau
whiteout
61cc
847
843
utox
spiro
talks
snow
mucin
antipsychotics
turg
62f
sucked
aai
hyperdensities
bairhugger
natural
untill
axillae
tens
##alled
register
opium
continuity
##lective
relf
stenosed
767
774
methylprednisone
seeking
recognizes
hyperchloremic
velcade
bents
rouse
distances
867
desmopressin
merep
bug
viscer
filgr
throug
moraxella
##ipar
819
t99
p11
opportunistic
bentson
##tebral
neurole
hematologist
comfortbale
757
##eseen
85m
823
pseudom
concluded
x48
preparations
dermatomy
thymic
constricted
doubled
multic
silv
granulomatosis
##eme
chip
24cc
undesc
addt
(<=
933
837
5fu
wenckebach
ephed
##str
##enertic
induce
paraly
fentanly
osti
normog
megace
receptor
videofluoroscopy
hypomagnesemia
##acr
##amune
##emir
arteritis
776
messenertic
jrci
deafness
junky
admited
1840
782
malleolar
exfoli
##ovax
##azem
twenties
ceased
obstr
918
leaked
appror
anaphylactic
metamucil
qshift
##erating
staged
spines
40cm
pah
mothers
824
om3
quadrap
myelofib
splenorenal
geographic
thoroughly
judicious
surgicel
ostiomeatal
fluff
1640
60bpm
procardia
902
55gms
nonetheless
bronchoscope
encoun
77f
pupillary
rhythym
##oly
adri
transh
##opped
84m
hydrostatic
cranium
1315
##dgf
outlining
2piv
##entral
indo
##ordinate
egoph
angioect
maintan
slighly
jehov
incoherent
unforeseen
f2
##uetic
staring
##occus
759
blocks
944
urtic
862
863
##ubicin
5mcgs
dfdgf
perivalvular
gist
kapp
##uloplas
drian
##derm
apnic
occn
871
preliminarily
kinking
anticholin
mph
wired
##ashed
reserv
##ypneic
1120
dlbcl
interped
007
doll
choices
hypervolemia
mup
abruption
##epl
infective
125ml
##overtebral
splenium
counseled
hemodilution
iad
##gl
lefort
respitory
80mcg
atrially
874
sexually
immunosuppressive
fillling
cyclophosphamide
filgrastim
cce
##bronch
intervened
sbft
psbo
purpl
iliacs
1500ml
resumption
discrepancy
lon
apposed
milr
fling
##ucosal
943
68f
facets
reproducible
tinnitus
adriamycin
##cated
nonvis
maintainence
pursed
definity
urolog
fixating
custom
subtracted
throughtout
##embolism
dialyze
##hile
##yly
supper
29cc
500x16
specified
lacunes
nipples
rewarmed
withheld
rush
##anous
sporad
hypervascular
883
##lucency
jude
hypointensity
airbag
cet
persis
##stage
927
appreciative
advise
absolutely
cases
##bj
##bation
##afen
978
hepatico
600u
warrants
abruptly
principal
barbitur
purplish
/#
vad
##cial
##thral
exac
prophal
904
genetic
928
ribavir
dentist
darv
##oxx
761
predominately
dysfxn
bever
airm
804
794
discontinuity
flexes
hormon
tremulousness
herniorrh
aggresive
mesothelioma
schwann
myelofibrosis
ptts
75g
delineate
mutiple
paget
pterygoid
chyl
15mins
1320
ifn
anyway
861
180mg
costovertebral
##scar
stretch
encroachment
rhythms
diluted
dopperable
uncom
64f
pedit
entero
displacing
curbs
alarming
lupron
maintian
umb
anit
perfuse
mandarin
ocd
gurgling
leather
##ressing
##epin
##while
globulin
custody
cisatricurium
reperfusion
kappa
nonvisual
plu
##eted
media
hemach
11l
18mcg
awhile
811
obstructions
849
tunned
##oencephalitis
parasthesias
laryngectomy
rice
##atley
##elong
##oted
807
##onsive
##oppy
866
913
varus
earliest
operations
judgement
synovial
bim
##cence
##isolette
##owef
##opsis
proscar
##strophy
pree
sco
emetics
##ophal
130ml
889
sternoclavicular
lifelong
hemoconcentrated
undescended
ka
unne
trv
853
promode
deferring
aleve
cereal
inadequately
signing
40gm
##egl
proteinaceous
##albuterol
salmonella
##ifocal
pedicles
duir
##epsia
docum
inquire
cosyn
perti
transhiatal
##owefr
laf
p7
sales
##col
##alon
##itits
##orrhage
lumbo
##aumbilical
fragmentation
metaphysis
3hours
##eridol
dlnc
enable
938
66f
drooling
fourteen
anticipating
emailed
turgor
5mcq
##isy
##aining
appts
053
908
fibrilation
scratch
dyspnic
##########
tunnedled
asl
asx
##adiation
##loids
##lers
statistically
maxim
conversive
translum
illeostomy
mycobacterial
spirocare
7d
##500
081
suport
964
neoesophagus
surrounds
explant
friability
carbon
dyspepsia
dyssynchrony
(.
##kd
##alasia
##idence
decre
12mcg
70f
thoracoscopy
malignancies
240cc
drsgs
qfeed
##lichia
##ocon
hosptial
inters
##clines
hd5
handout
omni
exacerbating
broader
qmowefr
millimeters
scratching
.#
endstage
##ofugal
echodense
loudly
ultimate
minimized
mupiro
hemachromatosis
"'
##tory
##onas
##atable
##omycosis
hepatotoxic
convinced
5parents
lod
molar
noont
ish
subphrenic
stream
1200u
dialysed
boarderline
relfex
##120
online
##hym
desires
predisp
creole
underpenetrated
mupirocin
beri
rab
##fos
##inding
abra
apcs
##ostosis
756
hd6
x1l
hepatopathy
5s
ba
save
extremit
806
workload
85f
83f
meningoencephalitis
doxepin
sanguineous
suprasternal
g6pd
peditube
aided
##//
excer
bsce
giant
500x
0700hrs
hepatofugal
reorienting
unreactive
additonal
tf150
hemetemesis
noontime
leftclip
##urethral
11cc
recol
antitr
764
humolog
sigmoidectomy
diminishing
viscera
@<
##aut
modality
650cc
candidemia
asymmetrically
strenuous
tetrofos
tetrofosmin
hitt
anuerysm
wnls
600x12
dopoff
vioxx
halfway
dehis
vw
vinc
##gue
##urable
override
underway
protuberant
##cessary
merely
##asement
2315
accounts
seventy
816
rapamune
morbidities
heartrate
cepacol
hemosiderin
adrenergic
abdm
angulated
864
silicone
salic
cocktail
q30
##ceived
insignificant
pneumovax
983
inspiss
orientedx3
synopsis
1705
sutent
clicks
##ovesicular
dronedarone
fig
zyr
##ket
becl
##hyper
958
##ocytoma
formulary
ft4
snare
quadric
waned
mutation
2wks
bout
taste
##q6
dilate
radiate
903
998
readmit
72hr
77m
cardioembolic
arrousable
59f
thermal
1000units
falc
happening
immunosup
threaded
hind
ty
##bm
##agi
##astat
##aputic
1820
parane
phon
054
49m
transfixed
922
932
tessalon
remaisn
exfoliative
darvon
preeclampsia
##wing
chur
##umonia
atv
##imalle
maintaing
##odystrophy
ings
comprehensive
reimplantation
sympathetic
transfixing
lubric
##tropin
requisition
moments
dme
550cc
5liters
debridment
intestines
minimizing
periprosthetic
mhr
navicular
##gies
insight
endoscope
psyll
72m
64yo
subcu
associates
biosp
##atarsal
throwing
througout
##enar
##umine
063
suggestions
testosterone
400ml
789
carbo
carbapenem
possiblity
efficacy
cac
##oduodenal
##ovaginal
wouldn
anticardi
lightening
birthday
myelogram
1100u
million
pneu
dermatomyositis
zyrtec
falciform
righ
##alamic
cvid
flange
968
79yo
898
ppft
loads
pateint
pplat
church
lance
sez
seeds
##iorad
882
919
occipit
lawyer
bumetan
duoneb
paired
reamins
mucinous
kc
nmed
stands
leisons
trise
insipid
seriel
bedroom
testis
repeats
moan
decubiti
##lobulinemia
3kg
kling
adop
hypoplasia
moderated
bleb
907
arching
estimate
dizzyness
diplococci
thromboembolism
inattentive
bial
vested
##viated
##gers
##urrence
ngl
973
redundant
groaning
encasement
rotate
cutoff
hyperexpansion
sot
##omb
assured
026
032
cope
ngtube
cerebri
achalasia
investigations
exhaled
forceps
pyridoxine
bumetanide
toile
40kcl
##tainable
basline
inferoposterior
pylor
dssd
disimpacted
duplicated
psyllium
d9
lomot
rear
##vec
intakes
963
868
flds
therex
50k
60gms
sleepiness
887
trivisol
servoisolette
intolerence
respirator
troughs
ramipril
afferent
fidget
bluish
##igth
isn
chord
abbre
shopping
##ctional
flaps
palpible
retropulsed
tachp
streaked
sufficiently
##itineal
rescusitation
9p
fitting
##onis
abilities
10mins
coa
coapt
0515
54f
myeloid
compromising
neutrophil
clozaril
6x
##arium
##ectives
contrastclip
brth
backed
ncm
858
63cc
831
explore
capsular
##uncular
/(+)
cotninue
bpd
26cal
27mm
differentiate
peds
leukocyte
auth
plueral
inspissated
lomotil
2vd
cnt
chi
ctv
levalbuterol
panhyp
951
oxyt
encasing
marks
400b
240mg
dstiks
5family
gleevec
oet
##99
##anges
meter
923
brachiorad
thruout
lami
perspectives
piog
ipmn
cosyntropin
][
##vol
##idays
##ocons
mris
lactated
echos
878
albuteral
syncy
summar
succes
inflows
rescheduled
opportunity
antitrypsin
adopted
10a
caths
avapro
848
adjustable
cdif
adenoid
cytotoxic
synchrony
network
herniorrhaphy
syncytial
city
fas
gon
##jej
10meq
medist
>.)
apn
mm26
901
##ofl
toxins
papular
hygromas
chylous
boggy
hover
ptch
monomorphic
upj
npc
backward
diastole
ssfp
taps
esophagram
membranous
liberally
anticardiolipin
##oconstric
ggo
##gn
##thur
asss
027
06mcg
appropiately
roceph
tripped
achieving
plugged
fixated
multiforme
##rist
##odilation
truv
peritineal
edh
859
predis
temporo
nsgy
amputated
quadriceps
63yo
##ordance
q4hour
creases
curves
pieces
cing
dynamics
##wl
atel
amicar
abdomenal
flum
028
progess
accup
897
##eplase
%+
1a
bir
##niotic
##x40
##opit
valid
enro
radiological
ascult
acetonide
superolateral
wedding
nonsens
erryth
upstairs
uricacd
sty
spt
12r
interruption
productively
reduc
948
tetracyclines
jehovah
truvada
viday
##emy
timed
indis
828
##phram
hardening
nil
##ephed
##anda
restoration
deciding
896
percut
pursuing
explored
cheeks
upstrokes
relfexes
pioglitazone
landed
##vement
ofc
##aconazole
comply
##erale
remv
20u
scenar
832
swann
contributors
mngm
unstageable
uptitration
assuming
postprocedure
reexploration
##imalleolar
vidaylin
0x3
lining
##opo
12m
ens
18hrs
##rowth
peep10
opti
triggers
meningismus
prostheses
pseudoephed
retrieved
##years
buspirone
sweaty
insipidus
>^
a12
mpt
assigned
evh
cte
977
##identified
enterotomy
necessity
vps
##phenazine
##ondritis
opthamology
9mg
nab
bilateraly
demise
nighttime
61f
bifida
happens
displaying
rescan
ovalocy
hyperlipid
phyton
vast
##imot
intercoastal
fractional
retina
924
##gmentectomy
serosan
suffer
stiffener
delineation
hippoc
abundant
construct
bles
##irectional
yesterdays
bursa
bifemoral
pancx
abbreviated
enroute
iob
##elves
exist
abusive
969
malt
912
cleanse
bm30w
abcesses
rewired
=================================
gingerale
##etrical
estranged
peanut
##uloplasmin
eclampsia
lyt
bronchogram
endometriosis
disconjugate
fifty
4family
intradural
revisit
melenotic
kk
defibrillated
flouroscopic
##oter
##urday
isl
positve
40mins
subins
hearts
lastly
953
74yo
quadrup
traverse
doubtful
reordered
##iolar
ventimask
60f
1720
2240
furhter
risen
setup
syndrom
moex
librium
cels
commented
2160
dangling
absolute
chromosomes
7s
##olytics
negatives
ps10
rhoch
836
pectoralis
fnf
##enlty
inline
10s
admins
brwn
breaking
phh
thoracent
internally
infarcted
aortoiliac
malfunctioning
phrases
2uffp
trun
drk
966
equil
coagulated
##rodesis
lnc
rheumatologic
peribronchiolar
auop
afsn
fow
coanda
80f
##okes
angiod
947
86m
bundled
600x14
supraspinatus
cigars
dangerous
klonipin
immobilized
##planned
flumaz
6g
nvd
##qd
##icl
##apam
adductor
971
nearing
urojet
sedimented
vaccines
eh
ejected
nwb
##uar
heaving
enrolled
restored
814
oligod
pbec
sjbj
subinsular
##ouses
##izure
972
smell
pcomm
flexors
engaging
##ochem
elemental
##rhythmias
mptb
rivers
syph
abod
14l
##urry
scall
thicker
cah
panus
58yo
acetone
droperidol
sticky
hepatologist
suprapatellar
incarceration
##amentous
schwannoma
kary
atp
heb
dlco
plea
1520
obv
teasp
crusted
29cm
alerted
917
arthrodesis
discoordinate
lozenge
peristalsis
collaboration
coryne
iwth
thems
reiter
unplanned
##ira
spring
2036
250ms
mbue
merci
##landular
noises
##igastric
trn
news
0645
01mcg
lymphocyte
bronchs
locale
fati
flighted
vbgs
jets
buspar
claustrophobia
celsius
4kg
8po
stu
rightclip
30degrees
helic
sixty
nebulized
aggrastat
##uronium
ventolin
2040
##ualr
refeeding
956
decortic
pod4
multihance
dxae
spiral
fasteners
hypercoagulability
givne
interpeduncular
phytonadione
8f
##rim
##sional
insula
antie
##upc
relieving
67yo
gavages
streptococcal
hyperattenuation
univasc
paraneoplastic
brachioradialis
1gram
##agement
1220
grips
##ezing
bidirectional
##cystitis
algorithms
##yloides
tachyarrhythmia
nonvisualization
a9
d8
##esm
##arism
intended
comparing
antire
pcis
operator
moistur
nkfa
autoregulate
reop
##ocath
noninsulin
actin
hypoenhancement
857
73yo
prepontine
tranfusion
acdf
reinitiated
fluffy
islands
aband
bron
1610
distracted
anxiol
869
791
892
899
891
pilon
articulate
aiming
couplet
brachytherapy
rocephin
themselves
pret
cmh20
arteriotomy
heading
quadrents
subsc
fluctuated
maximally
gc
##hel
##gital
##opent
relapsing
cleaner
prophylax
felodipine
hemopneumothorax
biospy
trisegmentectomy
oedema
##enet
47m
51f
894
##eeds
precipitous
parietotemporal
haemodin
##inence
##enat
increas
##anesthesia
##iferation
##hyd
rr16
awaking
70mcg
976
pericolonic
administr
##holes
cranberry
cholangio
familiar
serousanginous
cryoglobulinemia
microperforation
vte
theta
acl
0615
##key
sterilely
profusely
##uitarism
pancytopenic
acknowledged
pharmacologic
ablations
oligodend
yaw
##rogen
##agin
intiated
2150
051
082
transitions
transpar
mortem
##omethasone
aox2
dorsiflexion
unob
##acyt
spending
spared
whites
ivx1
##uffs
persistantly
vaginally
gcsf
5psv
recipient
tert
2500cc
21cc
hyperenhancing
992
cavitating
eyesh
colonial
troub
nonsmall
influenzae
ctr
lar
pineal
##igerent
aortocaval
##othiaz
showering
risb
mycin
vasodilation
cortisone
locking
spondylitis
placemnt
barbiturates
unnecessary
panhypopit
&#
.**
jug
tat
xx
##glandular
mlc
transudate
04u
##afoy
906
cabgx5
942
combo
hematemasis
humidity
remicade
ribavirin
beclomethasone
aides
nm
##earm
transurethral
scm
bowing
75yo
vacs
repetitive
fluctuates
##atios
disappeared
shfd
accupril
xct
##omectomy
stamina
chick
plv
comat
overly
##rier
mms
attg
midday
946
erythemat
arthritic
directional
harvesting
atlantoaxial
spillage
crypto
moexipril
1t
##ulo
##elb
##icaly
reduct
##iphoid
insuffiency
anteromedial
declared
##roscoliosis
rvef
xel
##dl
##isum
rr18
involution
916
laproscopic
reintrod
srom
##prom
##ulant
##opelvic
##aya
negl
092
ntp
osteoblastic
##ipsia
pnd11
tracheobronchitis
##otypic
##eglumine
anxiolytics
hone
##osseous
proair
subtal
lasts
997
##weats
takots
..."
bottlefed
favored
piggybacked
qhd
polydipsia
eust
##nyl
depressive
symb
reactivity
cytarabine
debridements
rpda
d14
spontanous
hyperexpanded
antiviral
scenario
nwh
##itional
bowl
therape
926
886
71f
likey
blackened
1100cc
arguing
25mcgs
pushes
identifying
##jugated
unintentional
antigens
kyg
npp
##itc
##riage
dilatin
listening
##onduit
%/+
muco
(?#)
cardiovas
decorticate
antiepile
tema
##wbc
##inus
united
1420
##azide
80g
826
829
employ
ivcd
conjunctivae
ketosis
aksb
transmural
cryptospor
lifestyle
sjogr
obliquely
uropathy
carda
hemian
28m
underf
914
withdrawals
bari
demarcated
##agiography
unobtainable
subtalar
>]
##eas
##alose
prison
spoon
instrum
##ascopic
45gm
939
cd8
strongyloides
dextroscoliosis
##ucks
investigated
thymectomy
tka
##etate
soiled
ventriculitis
##othoracic
inrs
hyos
subtrochanteric
snnp
opthalm
novolin
manubrium
4po
ehr
nmb
issued
drives
12th
30a
nonfunction
strange
regurgit
identical
921
osteonecrosis
disordered
caregroup
comatose
6po
telling
calcs
dimeglumine
ceftriax
egfr
combinations
repleate
penetrated
unconjugated
reaccumulated
stabalized
hormonal
chaln
plb
##otrol
##actomy
outs
53yo
tricompartmental
72f
dissected
1300cc
interpretor
dieul
metropolol
sebaceous
midlung
chalnagiography
hmg
##imer
spurs
couch
morgue
996
retching
934
eventration
fibroglandular
reversing
hepatopulmonary
noncompress
lafb
erythematosus
##urt
##iba
13l
guill
26mm
##ynamically
string
splinter
twitch
emphasis
chicken
1c
4parents
cu
endograft
ischium
##cessful
135cc
ssc20
hyperpig
ectopies
zenker
bss
weightbearing
capable
##roductive
anterolaterally
build
detecting
subscapular
cardaic
##7a
##inity
chylo
requi
987
anytime
alteplase
micub
89f
##absorption
301b
durin
atrioventricular
enthesophy
recollection
karyotype
2700
slighty
957
ostia
torodol
smoothly
posteromedial
jumped
hyoscy
portac
frac
90g
resta
demonstrable
psv5
certainty
hydroureteronephrosis
antidepressant
cist
dom
##p2
##98
unresp
confort
##usively
megest
buttress
brittle
##ferior
boll
+).
medicaid
adherence
transducer
tertiary
eustach
7days
mangement
##amph
##emer
recl
##agnosed
23mm
glucotrol
dysco
lactalose
937
931
86f
fiberopt
coordin
nightsweats
globular
tubefeeding
hiflow
flumazenil
megestrol
##imil
coales
pressing
everyday
image006
2lit
2lpm
lymphaden
reminding
billious
eustachian
cimet
ctu
expression
dyskinesia
anxi
injured
876
commonly
diaphyseal
tf150cc
gf
##gs
##osive
##osyn
proved
##ears
1310
20cal
##cyt
##vision
smiles
57yo
rechecking
securely
sidearm
presyncopal
clozapine
##pain
stun
noticing
suppress
087
988
500mcg
hdr
##30g
tolter
600s
prolonging
1540
approached
##iprazole
periferal
inadvertently
feculent
##nol
##fly
##anum
intit
pachym
974
64cc
66yo
paracenteses
osteophytic
taxoter
deceleration
corticomedullary
siezure
cueing
lanth
mount
##hx
##erance
50mcq
delusions
backrub
879
trochanteric
eyeshields
cure
##ths
regen
postoper
commn
941
600ml
silhouetting
sealed
lmp
repostion
breifly
reductase
taxotere
5h
vax
##bw
arip
edem
enucle
coude
calic
500x18
##ointed
nephrogram
adenovirus
methylene
macroadenoma
corticosteroids
5ett
bcs
##asectomy
20l
##ocks
mait
myomectomy
oxygent
56yo
diltazem
saggital
175cc
irradiation
inclusion
gadopent
unfolding
cimetidine
ress
r20
tack
wret
##asin
ifed
031
strands
bmp
52yo
alkolosis
vasculopathy
knife
nippling
sibs
understandable
rolls
##iuos
zaroxolyn
restaurant
stbale
chocol
printed
##ubular
day2
flaky
##placed
micu7
fallot
palpatory
listing
contracta
facetent
opposite
subsides
cervicothoracic
ankylosing
hyoscyamine
gadopentetate
##ele
##olate
##uln
##idus
chose
##apella
001
benicar
61yo
phototh
resuss
htx
eqaul
caught
xeloda
portacaval
9k
iac
unf
unifocal
10x
trisc
##quinol
3500
undi
exper
invov
divisum
svn
sacc
douderm
contracture
##roglioma
author
corynebacterium
a10
zonis
arim
consumed
mods
993
extubations
46m
residua
cribr
dolls
nephrograms
nsclca
stylet
##her
##xa
modes
indurated
##kiness
2140
extrication
expectoration
ethylene
2na
lcta
##s1
##rn
##uits
##ocarb
##unate
##cces
chem7
memantine
##450
international
amniod
neurosurgeon
epiglottis
crescentic
honeyc
cribriform
isodense
##adene
88f
tanish
750ml
manipulate
preseptal
surprising
iadls
reducable
chocolate
stoke
seized
##agh
preceed
wills
levemir
994
839
uroth
resisting
1400cc
unresolved
anesthesiologist
nihss
2tabs
aripiprazole
jej
tinct
##lis
##pted
2110
rvad
gastrohepatic
hook
100mcgs
##comes
overinflation
##trexone
cj
hon
tep
##ev
lep
##luent
##roma
ileocol
anaesthesia
submucosal
mngmnt
a7
basement
slid
0545
dysc
sentence
uncomp
solutions
fluctuate
diamniotic
valgus
documents
##ristine
rend
##oconazole
##ulty
pregest
movt
defici
ceiling
d5lr
enterals
indeterminant
refluxing
tailor
vicinity
survive
gluten
butterfly
silvadene
vincristine
tolterodine
yells
##agram
anf
anaphy
spaced
actig
blebs
genu
999
49cm
69yo
trait
pushbut
additives
raglan
draiange
carbohydrate
.=
8units
iah
##axin
rsb
filed
immunoglobulin
dampens
independantly
avpaced
neuroleptic
##nl
##cendo
##chool
remind
20mins
##ylline
##lectasis
949
88m
##omegally
rebol
scatt
bldg
prevented
preceded
amnio
5w
##ipex
15u
negot
048
##cgr
067
thoracoscopic
organic
##operable
bb02
cavernoma
hypoventil
euglycemic
bppp
zonisamide
f3
glycerine
xfer
##ict
patulous
grieving
generation
986
specgr
091
lactol
difficut
hsc
##overtex
firmness
nurser
deriv
schistos
clam
2350
accom
lipos
babe
proliferation
suturing
t1w
exacerbate
lantis
approaches
15mmol
undiagnosed
hj
mf
r18
##drop
##aus
commence
029
warning
x15
##omegal
tentatively
h2blocker
##efined
bcx2
paralle
exhalations
1ml
##aminal
##ocat
dioxide
1005
crain
grn
909
+++
cerebrum
bihemispheric
wedged
adeqaute
1835
travels
parathyroidectomy
simultaneously
excreted
catechol
lanthanum
domin
rb
##ila
##ader
fruit
078
creatnine
47yo
involuntary
##onv
concrete
choke
trif
neurovascular
sideholes
##avirus
booklet
encountered
##thal
residing
##ophys
irre
vitk
220s
adhesion
##uvia
bigeminal
##x600
x8hrs
##ilary
isthm
chiba
resource
##cep
clum
midp
blistered
062
098
septated
excitation
microhemorrh
vasoconstric
flights
conven
>".
bovis
bothering
##roved
tacy
conflic
hd7
bronchoscopic
angioplast
extrarenal
5mgs
sqi
repositions
bandaged
somnulent
dobuta
intercranial
travelled
describing
neighboring
propafenone
##130cc
wretching
vg
##uth
##izers
accessing
56f
62yo
pumped
scalpel
extensors
401b
lancets
@@@@@@@@@
gg
##irm
##stand
visually
detachment
podus
costoch
waxed
stripped
nuclei
shook
##ochromocytoma
symbicort
situs
coax
##oidal
037
952
locule
photother
geodon
januvia
encouarge
pushbutton
aoc
abo
outcomes
graph
##cretions
bronchoplasty
67cc
mastication
##osclerotic
##15g
gmsj
florid
casted
hue
##eing
contn
agon
068
##visol
consultants
crackle
tank
specialists
succession
parvovirus
academy
oligodendroglioma
&/
dyps
##anast
chd
25mcq
inderal
17cm
flr
tmr
septation
gloves
pearla
thalami
haemophilus
fears
challenges
oxytoca
saft
osteodystrophy
cortices
dialated
##@@@@@
antihist
anchor
##bronchial
ioban
chylothorax
@@@@@@@@@@@@@@
ore
endogastric
1710
verbalization
instent
seroussang
translating
hyperoxygen
consolable
anticholinergic
transparency
tincture
5parent
a8
intuabted
supplim
previa
glott
premarin
4lpm
lla
paralysed
pruritic
mycobacteria
strategies
fosc
##vity
stt
##thematous
##imately
##izumab
042
041
fenestration
excised
53f
filamentous
micon
phenom
perioperatively
polyvisol
arthroscopic
##oflour
adquate
carrier
intent
slurry
jpx2
##phalangeal
44yo
chlorprom
intraarticular
vertically
1560
kerley
coupled
bucking
discoordination
kaex
carbapenems
chlorpromazine
##date
##yte
contemp
abis
alp
1810
##oides
antrectomy
irb
gastros
soles
tranplant
hyperreflexia
bang
dow
pys
##pb
##cia
sting
047
##aug
088
thromboplast
angiomy
titers
phtx
phenomena
.>
##fk
antise
propro
2600
29mm
severly
crackly
litre
ketoconazole
coarseness
infilt
crossmatched
toleit
quadruple
nppv
thromboplastin
6cms
amout
delined
reflection
061
deflation
72yo
##phoresis
collagenase
unproductive
").
bot
##x15
##itide
##ombing
comands
##phine
##leted
ngsf
baloon
##ianx
65yo
doesnt
immunoflour
mepiplex
thoractomy
starvation
antiarrhythm
##orts
shig
##mentation
##istension
16cm
039
doppled
pancrease
motivated
41cm
929
82f
variety
hydrocel
hoy
respective
busy
cott
hid
named
##stent
tipped
1340
petrol
q24hrs
sweep
juxt
stretching
a11
jrld
crusting
udpate
egophony
jwk
rasp
##site
90ml
distorted
tmj
acetomin
creon
pointed
700ml
realistic
counsel
takotsubo
foscar
5a
mnia
##cil
12mm
acites
radioluc
046
quitting
relig
preschool
thinned
remarkably
.\
##ulates
brusing
antianx
31cm
..<
1020
ampic
protease
argon
pvrs
staphylococci
uvula
unimpressive
/^
elucid
##educt
stations
whil
2800
39m
reflexive
thyroiditis
proceeding
accumulating
immunoflourescent
##lted
interphalangeal
500x20
81yo
phosphenytoin
lma
tranhep
mycolytic
peerla
polymyxin
proprofol
mpr
##neumonia
hyperacute
##tracted
osteolysis
polyph
chemother
##oinferior
immunosuppresion
decrescendo
pramipex
lopres
sto
rights
ivd
19cc
weekends
979
purse
somulence
panculture
interacts
dssg
catastrophic
normoglycemic
hydroceles
##erl
isoint
icad
fright
midsh
axr
49yo
electrolyes
superse
##prbc
harder
1300u
nifs
argue
decresed
abandoned
urothelial
pramipexole
6s
laugh
rcm
cm3
radioc
giardia
blod
strat
palce
x22
fxr
urogram
2154
globus
hippocamp
lytely
arimidex
isthmus
##was
resemb
moda
segmented
thirds
##illedema
escalated
amphetm
tollerated
amorphous
dere
##uded
cathe
##cont
052
77yo
dsds
blanches
labatolol
honeycombing
<.
lined
##erations
oft
adaqu
##anted
swell
metane
057
spondylolysis
premedication
dieulafoy
lits
qac
##gin
##orce
pernic
lymphomatous
servic
unclog
usb
78yo
psycho
angiojet
displaces
phenylepherine
supervisor
randomly
choose
##occult
labatelol
##repair
3sec
4deve
rpl
##ara
chances
##ipy
extuab
outstanding
signout
catholic
099
bronchop
biba
tachypnia
otol
pluggy
1800cc
cntr
circumcised
tacrofk
amniocentesis
pachymeningeal
pum
##mh
##itonal
##igan
##icke
##oxone
982
typh
barocat
tearing
materials
yesturday
hemorrhoidectomy
anteroapical
accomplished
apnvol
4fen
acapella
981
comforted
anger
meanwhile
gaps
extravascular
implantable
hallucination
aox1
summarized
nonsensical
game
vyt
##rug
postd
066
0915
115cc
vegetables
converts
flouro
tyelenol
osteoarthritic
irbesartan
d20
##icit
##ailly
milder
##andy
pneumogram
systole
depr
smicu
papilledema
thoroc
pe30pm
globuln
mold
euthyroid
ileoconduit
cryptosporidium
cntrst
##bral
##anine
##olgy
flacid
tfe
protocal
anticonv
respirat
hemidiaphragmatic
unsuitable
ileocecal
replenish
##enatally
dh
miv
resec
hash
##ectious
071
cd3
fhx
duri
mumbles
longest
4d
##hood
##isic
##osi
miles
##obectomy
0345
hyperostosis
989
container
diltiazam
saphen
##taed
oltx
##................
detoxification
ceruloplasmin
families
nephrosto
ileocecectomy
noncompressible
1d
##burg
dific
heparing
7p7a
papules
narcs
spotlight
tranfuse
urticaria
brow
q5
ratios
reanast
##ocyn
0315
bmv
testicles
ringers
levofloxin
pulsation
##aryngology
wihtout
leucocytosis
caglu
hoyered
foscarnet
alch
##unge
059
emts
##auate
accuch
centers
##itra
sxnd
bradycardiac
papers
surveil
******
injecting
oligohydramnios
iodinated
shigella
n0
rcv
vet
##view
wht
weather
modifications
finds
corrob
049
lymphoproliferative
confusing
create
hhn
pustular
sponges
tatto
xt
alittle
##union
addison
65gms
periarticular
marred
rigth
duskiness
lamb
hamstr
struggling
trifur
vytorin
dak
##isylate
unkown
30cal
dysn
51cm
anticub
circulatory
fluttering
7000
cardioversions
pafib
pustules
ctpa
stsg
antihtn
pheochromocytoma
2weeks
5hr
msec
##uable
##elligible
2210
90mins
##lla
party
electrophoresis
dorsi
ciproflox
rotavirus
myalgia
dwind
upstream
##ophalangeal
anticonvuls
d6
##iomy
##cill
ataz
assit
peat
036
984
measurable
everywhere
936
diltizem
cytomegal
alloquot
premedicate
cellulitic
##xxxxxxxx
grabbing
overinflated
cilost
2amps
csu
##cys
##face
##aler
##arrow
##vex
placental
edisylate
crut
002
purch
800units
binky
acetominophen
(@
8kg
ell
tied
##rp
insisted
antb
temple
paraumbilical
requip
oxazepam
83yo
##x3cm
ssc24
mailed
qmwf
mxak
fidgety
predispose
rebolused
cole
fom
hift
##alp
##arax
toph
tounge
acitve
pacific
image009
gastrojejunal
##bleeding
favorable
fluctuations
phrenic
##~~~~~~~~
derivatives
0f
##mp
##omology
##oboots
nonrad
058
emtric
079
excres
pulmicort
osteotomy
gammopathy
antidepressants
neslted
tattoos
roused
stm
prud
colour
receieved
secretary
096
75min
provoked
palpitation
releif
66cc
##ammag
##otecan
##igrated
peeled
uvj
carrying
olfaction
cytomegalovirus
plas
drib
sinot
postictal
cathter
##orrhagia
functionally
ectope
boys
buttucks
osteomylitis
wafer
swollow
dysphasia
pitocin
tilt
##ipramine
medistinal
bou
ith
##raphy
ash
uploaded
furthur
ivpca
cigs
bigemeny
denser
interrogate
unfortunate
prophalaxis
mw
##adia
##otome
spry
segmentectomy
1041
educational
isosource
cholangiography
atazan
0n
cct
##omia
##iments
pml
portagen
manitol
mr1
52cm
parapharyngeal
connective
8x
ozz
##cath
##atine
##retic
exterm
notifed
##oten
##apr
assignment
intermittenly
q2hour
mobilized
sparingly
interference
assymetric
sinotubular
qmon
winter
abortion
##ista
evl
reasses
transbronchial
0445
appropra
##rectomies
myelitis
1600hrs
classifier
midshaft
/'
sellar
vess
zocyn
##tomy
alisk
##apes
subcl
##aceph
paused
carbaceph
golf
cooperating
paramedics
systolyc
gprs
unchaged
antipsychotic
temazepam
##imax
regressed
enterography
periodclip
medicare
milky
cytogen
picks
immunosuppressants
blowout
gsv
ovalocyt
chromosome
lubricated
##otry
##orable
##omine
##ocolectomy
daily16
bleomycin
##arged
depends
malasia
prolapsed
syndesm
hydralzine
gaur
chlorhexadine
unwilling
ophthalmologic
lieu
myelodysplasia
uniformly
deposit
vigilance
approriate
hashimot
vass
##ilt
peroxide
normalizes
2320
47f
retrocr
lengths
expectations
opthal
diphther
manifestations
carbacephems
mars
##03
plats
##stix
14mg
40f
##uperior
peep8
echoes
##operoneal
q24hr
cardioverter
reversibility
cn2
fleeting
dab
dumped
gree
##enesis
sliver
55gm
##acterial
diaz
iiib
recordsno
1625
ganglion
imipr
aebc
##arterial
nonradiating
retrocrural
wick
inoperable
##roc
indents
corac
antibacterial
demon
954
85yo
glim
##psv
indiscretion
antianxiety
pacificer
sought
##far
##onella
##oward
arte
0404
lacril
diskitis
dissolvable
1respiratory
nasoenteric
fortified
gynecology
pnemonia
cuboid
deficiencies
antiseizure
cilostazol
givers
##ren
##alities
##omide
meat
##akers
14cm
##obile
suboxone
generous
097
##okot
esom
palms
beclo
400mcg
iliostomy
il2
calibrated
gouty
gastrin
binders
interfere
airborne
metroprolol
spontaneou
lepirudin
isointense
stair
trx
tfeeds
077
distrib
59yo
metabolically
sotolol
underfilled
pysch
atazanavir
6kg
mud
pem
rouses
protracted
oldest
propio
midfoot
2220
pipe
diaph
inferobasal
offers
pigtails
debride
affects
cobedded
tomarrow
consequent
familial
sfv
syphilis
muff
xc
##ild
shop
arc
midsternal
##ustion
68cc
##iazem
respirtory
1600cc
##anguinous
##uneiform
.(+)
belligerent
ultrafiltrate
reinsertion
parvus
iap
iud
##acrom
immin
weaping
caltrate
##cardi
##ofol
lipomatosis
leukemic
reconfir
instrumented
phalanges
accentuation
lactolose
ks
##ilization
##hyph
##anta
intensities
1410
longus
1455
supplementing
##abdomen
antecube
propioception
1po
5po
##io2
##oine
unclamp
coexisting
movment
sputums
oxal
earlob
##infectious
protocols
complexity
operated
arthrosis
pleurovac
contributes
helmeted
5days
stacking
##otmy
##fff
imped
scn
42m
palps
psv10
t100
1425
achy
etco2
##x400
parasite
dichorionic
sjogren
petrolatum
##emt
attained
hospitals
hospitalist
effussion
##riety
0945
adequacy
elast
azm
##alogy
decompensating
##45g
untoward
dextrostix
dyscoordination
adaquate
##nce
infec
milirone
##andial
apenic
2120
reval
moreover
encomp
...?
concert
sludg
permit
pkt
punch
lopresor
tir
##uations
##ogam
regulate
056
hematological
erythrop
pivoted
tardus
apparatus
prudent
beclovent
asmt
perphenazine
28cal
capoten
sobriety
71yo
bicep
##aspan
utero
squir
zygoma
cfu
lwcs
tracheoesophageal
angiomyolipoma
csa
##ctab
##ivr
##arting
performs
concur
5000u
beverages
##acromial
2po
dypnea
##aa
##x0
tranc
##antadine
asthmatic
satisfied
romberg
encouragment
##estrated
turbid
tendinitis
jh
##o3
##atd
##ilosis
##osides
stagger
##creen
##actions
##iousness
32cm
076
88yo
electroc
vegetative
kyphoplasty
currenlty
reservoir
nbs
##uption
inward
##amonas
shout
heroic
postmen
levoscoliosis
caus
eman
##irement
originates
syncop
salv
reconstituted
optimizing
tibioperoneal
cuneiform
##otonic
##apnel
dispense
##istention
1205
addressing
gallon
resids
crease
augmented
preferably
lacrilube
1kg
##word
tho
plasty
perceived
celec
srs
87f
synergy
fibrinous
2125
bival
precluding
uncommon
coordinator
enucleation
pernicious
emtricitabine
encompass
celecoxib
mall
r16
wdi
##therapeutic
nonbleeding
16mg
0845
twf
991
##rapped
senokot
adenomy
##rased
favoring
reneg
dystonia
illeg
bard
##axel
>...
lowgrade
modalities
0625
44m
49f
runny
ogtube
obtainable
enterally
doxor
methylnal
##emetous
anesthesiology
liberalized
##oencephalopathy
urologic
atarax
sect
regu
##ionally
appreh
pod5
100ccs
##untarily
conversational
ounces
tepid
bisc
jj
##tropine
##icarb
##ilter
##adal
1210
##ertion
firings
1605
t101
cautery
transjug
niaspan
inattention
fiberoptically
4k
a6
mh
rene
vm
##erically
##ulbar
insuling
developement
500ccs
benztropine
pseudohyph
pvs
nailbeds
x12hrs
domestic
50mins
reviewer
38m
confidence
##otty
user
elav
multivit
850u
popiteal
trained
##roprion
mumur
hindfoot
mucocele
cathether
ay
xyl
yog
##n0
##night
##700
##rocentesis
posaconazole
##phosph
scaly
caf
inspite
mouthed
alongside
percodan
##graphy
buproprion
cups
rasb
pyridostigmine
klmn
##lasia
beating
##loic
072
oxalate
confined
paln
initialy
175mcg
hhv
tuft
violence
transgastric
conjugate
postmenopausal
pseudohyphae
rms
racing
wct
##hib
##ogout
flip
##cond
clincal
##phrines
barimax
fungating
determining
grandaughter
pharmacological
sfot
casthy
conceiv
errythema
aivr
wern
##oronary
consis
totaling
089
hemodynamc
steris
babes
x2hrs
subseq
hypothy
yeasty
##ocycline
ceftazidine
excessively
##parenchymal
platlet
craniocaudad
1x1
##lenic
##orated
rewire
##uri
amy
modification
balanced
hyperlucency
eleven
84yo
writh
tapp
valgancyclovir
sytolic
psuedomonas
duplication
trasnferred
trifurcation
bblock
##gb
toen
1510
seraqu
flashed
heparinization
completes
audibly
b6
d4
##rds
cried
inco
##azapam
q6prn
diaphram
##ericardial
superficially
bm32pm
thymus
30mmol
meniscal
extemities
accuchecks
baum
##pack
##loss
##kb
##ourous
ammts
bloodwork
contra
##avac
##shield
calculation
malod
vitd
hydram
##uroscopy
pseudon
hypogammag
hypercholesteremia
pjp
klor
##aryl
acess
##ostat
069
invag
##ommun
q4prn
transfrontal
leukoencephalopathy
teardrop
750u
900units
tachpnea
c1750
spurious
survival
cotton
imipramine
pemph
##lp
##ulsions
##elon
##thalm
##ete
carn
complement
mm28
75cm
occasionaly
82yo
pollen
therapuetic
nyha
telang
underdistension
evaulate
difficutly
bauman
telf
##iomalacia
##orectal
##osuperior
stg
cls
nonunion
tacchy
accu
glue
peaks
pumps
##veled
reconstit
plasmacyt
bitemporal
played
g2p0
phlegmonous
decelerations
dealing
brushing
kcld
ehrlichia
ntt
##31
##wr
script
craw
prns
femerol
##suff
lscl
sensorium
##50g
arranging
uncontroll
anesthetize
zeroed
('<
fetus
sneezing
nuc
sds
edv
morgan
radiotr
thusfar
arches
urography
vesic
hypospadias
dyscras
raspy
##gu
##jm
##anosis
##opression
bevac
##ptum
vec
wallstent
absess
43yo
activations
mornings
cdv
6lnp
extractions
bm28pm
granularity
haven
cisternal
vaxcel
photothx
dypsnea
bronchopneumonia
xcl
##ugh
##itics
##quinous
apically
clinoid
maintainance
vti
bathe
sensitivies
dermoid
precipit
neutrap
plasmaphoresis
signifc
linens
hemorrhoidal
hypospadius
telfa
hell
ubw
##rozole
##igil
##thesia
periapical
##eart
##ogy
histology
subl
rsxn
unsucces
qtts
tollerating
tachpneic
radiotracer
bevacizumab
2yrs
lpl
##x26
reserved
alve
aner
evalut
diagnos
tacypnea
##like
blockages
malabsorption
immunophen
pharmacist
tangential
gym
gwl
lgh
roving
##ams
##ags
scot
cysto
bicitra
spher
bisphosph
220cc
transmet
hiccough
strangulated
esomeprazole
9u
func
##92
##omandibular
##irc
##actin
pleuroscopy
edg
1505
cavum
endoclip
focuses
cardura
pints
lunate
cartia
commnads
hha
##cares
##roch
spends
60gm
70gms
adderal
itc
belief
everyone
counting
diarrheal
pancreaticojejunostomy
baricat
1400u
fundal
accomod
bod
ddi
gh
##edronate
chapl
10fr
spc
clump
ara
pretib
30m
agressively
coin
distend
nodds
1755
bumps
sphincterotome
clogging
negligible
gwlms
'/
bart
stores
##traumatic
##axic
twave
requirments
replacment
1240
naficillin
##umbra
cholangioca
'(
2grams
inbt
clws
reponse
postcontrast
fruits
symmetry
symt
periamp
corrects
decube
tranfused
elder
dependency
neuromusc
eroding
toelrating
gathered
polarity
asssess
babesiosis
landing
##ples
flaking
floppy
intran
lvad
54yo
400u
emperic
1140
pnd15
##ryoid
illd
jvg
lambl
mycobacterium
##rr
##roon
stored
##akiness
##ptics
precept
ivfb
coccus
thinners
rebounded
myeloproliferative
casting
##ematoma
reccomendations
osmolarity
*.
bues
vasectomy
##cabg
##wor
abac
hemoccult
presentations
exped
vaps
q6hour
arthrocentesis
fois
gado
shrapnel
##````````
dbl
##rops
manue
16l
dispite
##oxy
45yo
undr
expressions
distented
##opsia
1010
scatter
1800hrs
horses
rhochi
frightened
hashimoto
jct
zy
##atology
cha
##itories
##ax2
##anclip
agency
parked
recev
##plasty
preserve
interstitium
restrains
##uricase
ddimer
pearls
eggs
dabig
citr
tie
anoxia
whate
slides
offending
##she
paitent
wnr
passively
aoox3
upsizing
##x50
##tro
20mm
100g
ensued
rrs
apic
waited
drowning
funny
absorbed
888fff
metanephrines
illdefined
whatever
2ml
daug
pgt
##hage
##olunate
choked
postope
086
##ohem
urinated
##eneous
splaying
rules
personnel
pneumoboot
pseudoaneurys
wiggled
intestinalis
thorocentesis
hurric
vigilant
debilitated
quadraplegia
vibe
##bulbar
pneumatic
attends
betw
canceled
qualify
windshield
overdosed
fluoroquinol
##ihaler
multidisic
consuming
inflammed
cogentin
8k
biz
##bated
##istration
##apin
day1
recumb
crad
subacromial
coaching
pharyng
offset
awaits
handihaler
cephaloh
t96
2035
chgc
oupt
hurting
acromion
intraductal
sprue
hemmorrhage
thermoregulation
lodged
birads
elavil
1f
pray
composite
##aked
stats
airbed
officially
33cm
x25
recurrance
infraspinatus
precipitate
shrink
ideations
neighbors
rhoncer
follwing
winces
whilst
chaplain
abacavir
cans
oroph
rez
existed
##seconds
2340
eleventh
sensor
png
##=======
mammographic
emphasized
budd
chiasm
pilonidal
eco
##amese
##antic
sheep
physici
##conazole
##ogra
26m
36hrs
residence
formulation
pseudogout
dyazide
1250mg
ahpb
contineu
reccomended
orchitis
teaspoon
##arable
dishe
drunk
basket
awating
sbos
antibiod
initated
excr
singular
aneuric
73cc
2ln
medicating
pnd13
cutis
##itudes
suppositories
public
adamantly
haemodinamically
jugul
physicianclip
7k
vietn
wap
##atations
##atran
##ocel
whit
lymphocele
retrobulbar
cardiomediastinum
1725
penumbra
verifying
cemented
##elbine
saftey
otolaryngology
7o
aunts
cid
##uir
##itently
lef
perp
suds
cki
nc02
ms4
duoder
balloons
mesylate
fiorocet
discernable
atriocaval
##amphet
1k
b1
cia
##yow
##unious
hypogastric
1110
histo
20yrs
attachment
idm
angiomas
angiocath
sticking
pilot
btca
amphetamine
amphetamines
mutlip
tough
lhc
radioactive
intralobular
atherectomy
desquamation
rasburicase
7kg
reset
sucess
##iesis
cmy
##ensated
fentayl
51yo
rvot
writes
flagy
interposed
nonobstructed
sandostatin
readjustment
resussitation
surveilance
xylocaine
transmetatarsal
inbtwn
3m
##ease
prevents
asper
occa
antibio
twisting
loopy
esph
redden
provid
101f
emperically
methem
senn
tenting
##iplatin
##armacy
accounted
choroidal
scapholunate
tarsal
writhing
3t
aeds
##icall
perme
##ensin
acth
phd
##ofibular
axil
rhcm
liquor
entertained
temporomandibular
projectile
lightheadness
coldness
crossclamp
montitor
exclusively
gyral
shooting
reiterated
imminent
0ett
lute
##anyl
stagh
abated
##ocort
reprogram
afer
25m
2310
treatement
informational
##omedially
marces
5lnp
cerebelli
alleviated
rescucitation
observing
aaox2
owns
vasoconstriction
superselective
crutches
methylnaltrexone
staghorn
h7
##ini
##isng
nev
##bers
tcm
ssr
1260
5cm2
macrog
diskectomy
methylx
tetralogy
normothermia
repostioned
troche
helicobacter
gard
##isil
ablated
acut
>."
disprop
albut
sensipar
afofs
darkened
zaroxyl
macrophages
costochond
9a
g5
rosc
soda
resuc
coaxial
35cm
inval
fenestrated
##otting
dsng
clonopin
afsfo
suffers
miscar
rhyth
uninterested
obliquity
scratches
irrevers
invagination
rezero
3amps
thomb
asynchronous
##odid
print
##ppy
resposition
##asetron
murmru
difficultly
1525
proned
multidrug
thalassemia
amplitudes
formalin
rewiring
30minutes
banging
trancatheter
periampullary
##mid
##icol
tod
##opine
cept
hypochlor
sxed
descent
1080
7po
ndnt
lidoc
bariatric
nonconv
intercourse
levofloxicin
rheumatologist
cephalosporin
taxus
fearful
eyebrows
religious
emanating
dyscrasia
""
ohs
##penicillin
##bath
institute
noco
contni
meats
20units
48yo
stickers
pallidus
strawberry
ssc30
aqueduct
cookie
hyperventilating
maintanence
renegade
(*
kd
pso
ulytes
perles
colovesicular
thicken
capping
28yo
myoglobin
##kgmin
extrm
rapamycin
circulating
550x14
1700cc
granulocyte
neosynepherine
##ondylar
crowded
interviewed
cfv
reinitiation
maltoph
multidisiciplinary
rhoncerous
biph
camer
fae
spp
##vox
##ucl
peritr
bloodst
voluntarily
##ntg
%...
1040
##nsr
filming
##iazine
exerting
dextr
directionality
learned
consoled
persisent
enthesophyte
##thalidone
methylxanth
4gms
##aq
##arine
recieves
24cals
skincare
ifgd
bloss
vancomy
allergist
45f
nutritionist
holidays
1105
cirroh
sensit
irritating
unsucessful
profil
1825
convulsions
tilted
billiary
antivirals
dabigatran
omm
##bon
##itian
patietn
##actor
attn
##ymp
##ocytopenia
estrogen
tremend
calmly
##itoned
accumulated
swinging
gasses
wbat
clenched
radiocarpal
6parenting
8d
cats
cued
lop
oro
q10
##ike
##x28
##ili
consensus
86yo
handled
##azoline
reticulation
flailing
eyedrops
merepenum
8ml
ere
flying
##gyl
##320
##orl
##isional
neomycin
slit
verification
87yo
automatic
azyth
1225
##506
bumping
dstic
comprehend
hyperext
schisto
vista
wondering
interstial
cisterna
1sepsis
wre
##hoe
##uos
##88
inact
##abel
##erect
shakiness
bilary
effluent
paraps
.."
illiac
rhf
spontanously
hyperchloremia
malodorous
)=
4s
##lator
shear
carep
##stein
heroine
ulsb
##ixin
quart
sbts
0145
hd8
85g
malro
humira
streaking
1635
smearing
rla
articulations
damaged
tuberosities
##penicillins
3po
ocp
yard
pras
postr
monotherapy
metered
visibility
obser
bronchoscopies
holdup
potent
irin
halved
600x16
hydrone
##aquine
pets
tightening
metacarp
trimester
disappointed
observations
vietnamese
duoderms
gender
##fan
##yhm
##trach
min130cc
20mcgs
##ovement
subside
subarticular
served
secrt
pancreaticoduodenal
rosig
tagamet
infreq
1fen
pvt
##inel
##isation
##etime
valtrex
coating
antipy
vers
sleeper
pcas
bacteroides
electroencephal
psychotropic
elab
dictator
alternated
modestly
finishes
redirectable
...............
immunosupression
1tab
elastoplast
parapsilosis
dgt
wester
thready
##inepherine
multitr
asprin
creatin
moms
rulobectomy
unsupp
professor
hyperbilirub
expecting
acknowledge
sofsorb
solely
whisper
adenoidectomy
wernicke
costochondral
faecal
land
##uz
##>>
reloaded
##iritide
interog
120kcal
chlorthalidone
technician
grimm
2105
judet
dislodgement
retrievable
ecotrin
camera
malrotation
rosiglitazone
##96
##esive
##ititis
minmal
previos
nutritious
0815
sugery
accordance
lvl
sulfad
##240
mushrooms
doxil
mammograms
950u
paradoxus
polychondritis
trapezii
invovled
oxaliplatin
fss
fcs
m4
socks
##alt
##agan
precontrast
nong
45mg
redosed
##rla
rectovaginal
3lpm
esophagoscopy
##agesic
collateralization
cholangiogra
herniorraphy
##++++
##hyperbili
electrocau
cephalohematoma
tiw
##arre
disrupted
outward
sc32
ijv
hypercholesterol
pleurisy
arthralgia
country
vaccinations
currr
lenses
diruesis
bzd
toiletting
irinotecan
western
multitrauma
6ml
##uely
##ason
17l
desk
peripher
##ohep
eligible
director
otitis
engages
fundi
dipstick
pentoxif
downtrended
toelrated
clenching
rabbi
derec
doxorubicin
a5
fd
fy
iia
mtt
plof
hyperna
expires
freund
descends
1325
concise
concordant
##meas
keton
cloths
consequ
ileoanal
epigastrum
perifissural
fk506
anxiolytic
6k
love
vib
vff
##iour
startle
##placement
babesia
steroidal
q8hours
extravasated
fecalization
spondylotic
hypercoaguable
shoes
##ondrial
mylanta
confortable
typhlitis
##amphetamine
hops
nick
##heart
##luid
##sof
refil
smart
##ymous
iiia
grafted
lae
originate
meme
breakdowns
nonpitting
degradation
1uprbcs
gynecological
ventillator
syndromes
rezeroed
wer
percl
beige
##sts
indir
cooking
negat
flowh
quentin
hematuric
colonizer
encases
##perfusion
knuck
##hydrated
zyprexia
bdline
synchro
strangulation
aneurism
featureless
figure
conceivably
prasug
9po
##atonin
abc
acne
endol
swearing
verses
palm
gallium
##ohist
cystoprost
pn10
1135
ltc
heavier
1655
##ecomy
connecting
##scopy
nostrils
bounce
epididymitis
epipen
curbside
duiresis
extremitites
opthalmology
mivf
resecured
freundii
##tid
thich
##enting
##ussed
##ury
##ima
animal
##aphed
laboured
manic
param
##ograde
90mcg
bedbath
stressful
stimulating
mvrepair
droped
lookup
steat
cytosp
surveillence
xanthomonas
scabbing
acheive
imbalances
assymptomatic
turbulent
succesfully
mutliple
1sr
##oar
##kly
##zar
##esed
shamp
##antib
##quis
##aflex
lymphatics
palette
promus
methy
grimaced
substrate
kernel
orgs
interestingly
dysnchron
syncopized
5m
punc
##ois
##hd
##enotypic
##embran
hept
hemopericardium
dilodid
visable
sbe
hytrin
sentinel
43m
##iodes
##cystectomy
1280
375mcg
hemangi
meni
caudally
##x550
oxygentation
polypharmacy
cytogenetics
erythropo
pseudonormal
pretibial
biphenotypic
##cemic
##110
tos
##iride
amm
acrocy
##phenoid
world
twis
55cm
coloration
primaquine
supertherapeutic
bbr
microbiological
targets
sessile
decannulated
deltap
##transplant
amniodarone
actigall
ozzing
iib
sod
##igent
##opontine
perph
carid
soaking
0745
38cm
risedronate
angioma
450x14
viruses
ligated
catat
##acetate
protrusions
afford
malpositioning
upsized
perseverating
condyles
consequences
cyl
lns
ww
ont
evla
##ourage
dli
radiodensity
35m
2900
limp
socail
reduces
tricyc
emerg
1855
puss
subscapularis
regenerative
undrained
bizarre
irreversible
prasugrel
cytospin
6min
rides
##imide
mea
impor
scx
swith
micofungin
msiv
87m
safest
bcxs
tranx
2155
plaquing
forceful
salicylate
panhypopituitarism
laughing
pentoxifylline
7units
fole
##sych
##tension
##zer
##edemia
prazosin
##quant
coloured
controll
desipramine
hyperfib
adduction
distinction
football
marriage
transped
##aspinous
swabbed
##ochondrial
punctures
neuroma
infuseing
cerumen
flavor
hovering
adenomyomatosis
methemoglobin
faecalis
3gm
caking
foe
t0
##uy
##ussive
cher
##umo
resect
100c
cardiom
acts
parag
##ocking
occurrence
progres
provigil
armp
herniations
eccyhm
swimmer
multilobulated
##s1s2
clumsiness
nonconvulsive
8g
tft
xplant
##ojejunal
conint
##abr
##oded
##look
30u
tolerat
##cyin
yellowing
seperate
##iltration
bottler
formations
melenic
marroon
television
prognostic
##ibrium
infratentorial
namely
echymoses
fentynl
nesiritide
disheveled
dictatorinfo
9mcg
copp
hay
qr
##ept
##x30
conception
##idng
##urm
forces
##ceal
trips
acke
redisc
nasotr
53cm
sxns
diuresising
##peutic
variance
affection
omentectomy
trochanters
pansinus
spasticity
whiskey
sporadic
demonst
shouting
signifcant
dto
##prh
##vn
##inues
11cm
blooming
uptr
morn
midway
swings
delusion
##aphe
appropr
intraconal
bibasilarly
semierect
##encia
therapists
cachex
preclude
navelbine
transversarium
....................
careplan
dont
nv
rind
##ssion
##adiol
##ancing
insisting
caly
phar
undec
includ
88mcg
leukomalacia
>/<
rosacea
argument
cholangiopathy
menorrhagia
assaulted
cushing
assume
raynauds
abstinence
paralyze
dakins
baumannii
#?
3parenting
iver
##edal
exquis
cvat
phx
blot
proteinosis
curently
configurational
diuress
odt
understandably
vocalize
rima
opthomology
duragesic
601b
preceeding
vassopressin
electroencephalogram
<<
aur
dream
wnd
##yh
inthe
acine
##creta
adjunct
discharging
occiptal
##uppression
cryptococcus
resusitated
acheived
precluded
vcug
vegitation
incoordination
horseshoe
cradle
nevus
1v
##mi
##bn
stare
##ipids
##version
neurointer
colase
##ensis
0415
sediments
inspir
##tiline
risky
nto
broth
##osclerosis
necessitated
terrible
hepatotoxicity
ascultation
nongap
veter
##omosis
##istatin
extention
[...]
